unsigned char gesture_model_data[] = {
  0x20, 0x00, 0x00, 0x00, 0x54, 0x46, 0x4c, 0x33, 0x00, 0x00, 0x00, 0x00,
  0x14, 0x00, 0x20, 0x00, 0x1c, 0x00, 0x18, 0x00, 0x14, 0x00, 0x10, 0x00,
  0x0c, 0x00, 0x00, 0x00, 0x08, 0x00, 0x04, 0x00, 0x14, 0x00, 0x00, 0x00,
  0x1c, 0x00, 0x00, 0x00, 0x88, 0x00, 0x00, 0x00, 0xe0, 0x00, 0x00, 0x00,
  0xfc, 0x36, 0x00, 0x00, 0x0c, 0x37, 0x00, 0x00, 0xcc, 0x46, 0x00, 0x00,
  0x03, 0x00, 0x00, 0x00, 0x01, 0x00, 0x00, 0x00, 0x04, 0x00, 0x00, 0x00,
  0x42, 0xc8, 0xff, 0xff, 0x0c, 0x00, 0x00, 0x00, 0x1c, 0x00, 0x00, 0x00,
  0x38, 0x00, 0x00, 0x00, 0x0f, 0x00, 0x00, 0x00, 0x73, 0x65, 0x72, 0x76,
  0x69, 0x6e, 0x67, 0x5f, 0x64, 0x65, 0x66, 0x61, 0x75, 0x6c, 0x74, 0x00,
  0x01, 0x00, 0x00, 0x00, 0x04, 0x00, 0x00, 0x00, 0x94, 0xff, 0xff, 0xff,
  0x0d, 0x00, 0x00, 0x00, 0x04, 0x00, 0x00, 0x00, 0x05, 0x00, 0x00, 0x00,
  0x64, 0x65, 0x6e, 0x73, 0x65, 0x00, 0x00, 0x00, 0x01, 0x00, 0x00, 0x00,
  0x04, 0x00, 0x00, 0x00, 0xe2, 0xc8, 0xff, 0xff, 0x04, 0x00, 0x00, 0x00,
  0x0c, 0x00, 0x00, 0x00, 0x63, 0x6f, 0x6e, 0x76, 0x32, 0x64, 0x5f, 0x69,
  0x6e, 0x70, 0x75, 0x74, 0x00, 0x00, 0x00, 0x00, 0x02, 0x00, 0x00, 0x00,
  0x34, 0x00, 0x00, 0x00, 0x04, 0x00, 0x00, 0x00, 0xdc, 0xff, 0xff, 0xff,
  0x10, 0x00, 0x00, 0x00, 0x04, 0x00, 0x00, 0x00, 0x13, 0x00, 0x00, 0x00,
  0x43, 0x4f, 0x4e, 0x56, 0x45, 0x52, 0x53, 0x49, 0x4f, 0x4e, 0x5f, 0x4d,
  0x45, 0x54, 0x41, 0x44, 0x41, 0x54, 0x41, 0x00, 0x08, 0x00, 0x0c, 0x00,
  0x08, 0x00, 0x04, 0x00, 0x08, 0x00, 0x00, 0x00, 0x0f, 0x00, 0x00, 0x00,
  0x04, 0x00, 0x00, 0x00, 0x13, 0x00, 0x00, 0x00, 0x6d, 0x69, 0x6e, 0x5f,
  0x72, 0x75, 0x6e, 0x74, 0x69, 0x6d, 0x65, 0x5f, 0x76, 0x65, 0x72, 0x73,
  0x69, 0x6f, 0x6e, 0x00, 0x11, 0x00, 0x00, 0x00, 0x18, 0x36, 0x00, 0x00,
  0x10, 0x36, 0x00, 0x00, 0xf8, 0x35, 0x00, 0x00, 0xcc, 0x35, 0x00, 0x00,
  0xfc, 0x17, 0x00, 0x00, 0x6c, 0x17, 0x00, 0x00, 0x5c, 0x07, 0x00, 0x00,
  0xcc, 0x06, 0x00, 0x00, 0xbc, 0x00, 0x00, 0x00, 0xb4, 0x00, 0x00, 0x00,
  0xac, 0x00, 0x00, 0x00, 0xa4, 0x00, 0x00, 0x00, 0x9c, 0x00, 0x00, 0x00,
  0x94, 0x00, 0x00, 0x00, 0x8c, 0x00, 0x00, 0x00, 0x6c, 0x00, 0x00, 0x00,
  0x04, 0x00, 0x00, 0x00, 0xa2, 0xc9, 0xff, 0xff, 0x04, 0x00, 0x00, 0x00,
  0x58, 0x00, 0x00, 0x00, 0x0c, 0x00, 0x00, 0x00, 0x08, 0x00, 0x0e, 0x00,
  0x08, 0x00, 0x04, 0x00, 0x08, 0x00, 0x00, 0x00, 0x10, 0x00, 0x00, 0x00,
  0x28, 0x00, 0x00, 0x00, 0x00, 0x00, 0x06, 0x00, 0x08, 0x00, 0x04, 0x00,
  0x06, 0x00, 0x00, 0x00, 0x04, 0x00, 0x00, 0x00, 0x01, 0x00, 0x00, 0x00,
  0xeb, 0x03, 0x00, 0x00, 0x00, 0x00, 0x0a, 0x00, 0x10, 0x00, 0x0c, 0x00,
  0x08, 0x00, 0x04, 0x00, 0x0a, 0x00, 0x00, 0x00, 0x01, 0x00, 0x00, 0x00,
  0x02, 0x00, 0x00, 0x00, 0x04, 0x00, 0x00, 0x00, 0x06, 0x00, 0x00, 0x00,
  0x32, 0x2e, 0x31, 0x35, 0x2e, 0x30, 0x00, 0x00, 0x06, 0xca, 0xff, 0xff,
  0x04, 0x00, 0x00, 0x00, 0x10, 0x00, 0x00, 0x00, 0x31, 0x2e, 0x31, 0x34,
  0x2e, 0x30, 0x00, 0x00, 0x00, 0x00, 0x00, 0x00, 0x00, 0x00, 0x00, 0x00,
  0xb4, 0xbb, 0xff, 0xff, 0xb8, 0xbb, 0xff, 0xff, 0xbc, 0xbb, 0xff, 0xff,
  0xc0, 0xbb, 0xff, 0xff, 0xc4, 0xbb, 0xff, 0xff, 0xc8, 0xbb, 0xff, 0xff,
  0x3a, 0xca, 0xff, 0xff, 0x04, 0x00, 0x00, 0x00, 0x00, 0x06, 0x00, 0x00,
  0x3f, 0x93, 0x05, 0x62, 0xbd, 0xb4, 0x33, 0x0b, 0x0e, 0x2b, 0x57, 0x53,
  0xd9, 0xde, 0x61, 0xe5, 0xc0, 0xe0, 0x6f, 0x25, 0xc8, 0xb7, 0x60, 0x23,
  0xd7, 0x87, 0x69, 0x53, 0xcb, 0x20, 0x19, 0xfc, 0xb7, 0xd1, 0x10, 0xde,
  0x10, 0x81, 0x5b, 0x46, 0xea, 0xc1, 0xee, 0xe8, 0xf3, 0x31, 0x7f, 0x4e,
  0x1e, 0xd4, 0x7f, 0x31, 0x39, 0x2e, 0x39, 0xc1, 0xa2, 0xbf, 0x06, 0x58,
  0xab, 0x9d, 0x6c, 0x74, 0xb7, 0x22, 0x4a, 0x50, 0xa8, 0xed, 0x00, 0x34,
  0x2b, 0xea, 0x2f, 0xda, 0xb9, 0x22, 0x29, 0x07, 0x01, 0x28, 0xb8, 0xc2,
  0x27, 0xb1, 0x4d, 0x49, 0x4e, 0xd3, 0xcf, 0x17, 0x3e, 0x48, 0xbb, 0xd6,
  0xe9, 0xb3, 0x03, 0xbc, 0x3a, 0xf8, 0xf6, 0xd4, 0xe0, 0x6a, 0xdb, 0xce,
  0xeb, 0x29, 0xcd, 0xdc, 0x18, 0xeb, 0xd3, 0x89, 0x10, 0x3f, 0xb0, 0xa2,
  0xdf, 0xba, 0xd0, 0xd2, 0xe4, 0x40, 0x43, 0xb7, 0x2a, 0x7f, 0x3c, 0xf3,
  0xfe, 0xc0, 0xd8, 0x1e, 0xf5, 0xec, 0xd6, 0x0f, 0xa4, 0x61, 0xcc, 0xb0,
  0x50, 0xef, 0xed, 0x21, 0x16, 0x72, 0x2c, 0xd8, 0xa7, 0x4b, 0xbd, 0x72,
  0xec, 0x42, 0x49, 0xb9, 0x3f, 0x3e, 0xee, 0x54, 0xce, 0xce, 0xc3, 0x53,
  0xe8, 0x5e, 0xec, 0xde, 0x26, 0x6b, 0x3d, 0x7f, 0x4a, 0x31, 0x60, 0x4d,
  0x36, 0x58, 0xeb, 0x2c, 0x6d, 0x65, 0x9c, 0x71, 0x19, 0xaa, 0x1b, 0x2c,
  0xf5, 0x2d, 0x63, 0x08, 0xfa, 0x17, 0xf2, 0x5f, 0x40, 0x20, 0xce, 0x50,
  0x3c, 0x41, 0x67, 0xc1, 0x26, 0x0b, 0xe9, 0x2c, 0xd9, 0x1f, 0x1f, 0x37,
  0x42, 0xce, 0x7f, 0x0c, 0x31, 0x0f, 0xb7, 0x60, 0x4d, 0xdc, 0xca, 0xe0,
  0xdb, 0x23, 0xd8, 0x11, 0x0b, 0xe3, 0x19, 0xe5, 0x51, 0xe4, 0x47, 0xe3,
  0x82, 0xe3, 0x9b, 0xd5, 0xf3, 0x05, 0x25, 0x15, 0x11, 0x16, 0x1a, 0xd4,
  0xd0, 0xb2, 0xdd, 0x57, 0x3c, 0xe8, 0xe5, 0x39, 0x33, 0x13, 0x1e, 0xc6,
  0x92, 0xa1, 0x12, 0xc1, 0x7f, 0xf7, 0x40, 0xb6, 0xd5, 0x19, 0xd5, 0x96,
  0xed, 0xdc, 0xbf, 0x3e, 0x2c, 0x29, 0x27, 0xaa, 0xec, 0xfc, 0xa5, 0xdc,
  0xdf, 0xa6, 0xe3, 0xdc, 0xff, 0x2e, 0x39, 0x2a, 0x8b, 0xfe, 0x8e, 0xe3,
  0x92, 0x21, 0x3e, 0xd4, 0xdc, 0xcf, 0xa7, 0xf4, 0xe7, 0x10, 0xe0, 0x72,
  0x94, 0x9b, 0x28, 0xa9, 0xa3, 0xe4, 0xc3, 0x0b, 0x5c, 0x29, 0x9a, 0x49,
  0xb3, 0x9b, 0x47, 0xed, 0xdf, 0x22, 0x81, 0x65, 0x72, 0x1a, 0x8b, 0x3f,
  0xa5, 0xc8, 0x6e, 0xb9, 0xfb, 0xcd, 0x6f, 0x08, 0x03, 0x4e, 0x25, 0xb5,
  0x14, 0x1e, 0x51, 0xdc, 0xe6, 0x19, 0x19, 0x2b, 0xe3, 0x4d, 0xde, 0x97,
  0xb3, 0x4a, 0x5d, 0xe3, 0x43, 0xf3, 0x10, 0xbc, 0xe2, 0x45, 0xde, 0xe0,
  0xe7, 0x5a, 0xed, 0xe4, 0x24, 0xdc, 0x14, 0x3c, 0x32, 0x05, 0x1d, 0x81,
  0xe8, 0xba, 0x09, 0x4e, 0x23, 0x58, 0xc1, 0xd8, 0xdd, 0xdb, 0x56, 0x14,
  0x81, 0xf2, 0xa3, 0xe3, 0x32, 0xad, 0xc2, 0x84, 0x32, 0x2f, 0x5b, 0x64,
  0x0a, 0xd4, 0xce, 0x2a, 0x4d, 0x15, 0xf3, 0xaf, 0xd1, 0xe5, 0x7f, 0x11,
  0xb5, 0xef, 0x02, 0xf7, 0x08, 0x01, 0xa8, 0x0f, 0xde, 0xf2, 0xf2, 0x13,
  0x22, 0xf8, 0xbc, 0xdd, 0x23, 0x9d, 0x98, 0x35, 0xb3, 0xad, 0xea, 0xfe,
  0x35, 0x4e, 0x27, 0x49, 0xbf, 0xd7, 0xec, 0xc8, 0xbf, 0x94, 0xdc, 0xfb,
  0x0b, 0x41, 0xf3, 0x28, 0xb0, 0xbc, 0xec, 0xce, 0xff, 0x0c, 0xa4, 0xb7,
  0xcc, 0x16, 0xf2, 0x18, 0x38, 0x43, 0x81, 0xfa, 0xcc, 0x9b, 0xd2, 0xbf,
  0xc5, 0xd2, 0x6d, 0xa6, 0x1b, 0x08, 0xc8, 0xf5, 0xba, 0xfd, 0x8a, 0x9b,
  0xe5, 0xc3, 0xec, 0x15, 0xbe, 0xda, 0xaa, 0xb2, 0xcc, 0x2d, 0xbb, 0x0a,
  0x39, 0x65, 0xde, 0x48, 0x35, 0x3f, 0x2c, 0xbb, 0x10, 0xbf, 0x81, 0x8f,
  0xcc, 0x2b, 0x8c, 0x37, 0x24, 0xe8, 0xa4, 0xb9, 0x68, 0xe7, 0xd8, 0xa2,
  0xca, 0x4f, 0x25, 0xca, 0x0f, 0xc7, 0x26, 0xf9, 0x46, 0x34, 0x51, 0x36,
  0xf3, 0xf8, 0xce, 0xaa, 0x08, 0x89, 0xb2, 0x34, 0x3a, 0x7f, 0x15, 0xb5,
  0xc5, 0xc9, 0x15, 0xcd, 0xcd, 0xa1, 0xda, 0x38, 0xfb, 0x5d, 0x5b, 0xf3,
  0xeb, 0x0f, 0xe1, 0x46, 0x47, 0x24, 0xfd, 0x60, 0x06, 0x51, 0xde, 0xab,
  0xc0, 0xdc, 0xab, 0x0f, 0x39, 0x83, 0x98, 0x5b, 0x40, 0xec, 0x00, 0x57,
  0x5b, 0x0a, 0xc6, 0x33, 0x4f, 0x94, 0x1f, 0xdc, 0xd6, 0xee, 0x4c, 0x2e,
  0xd2, 0xe8, 0x43, 0xb5, 0xc5, 0xca, 0x9b, 0x23, 0x40, 0xf5, 0x52, 0x7f,
  0x33, 0x40, 0x4e, 0xf5, 0xe2, 0x1f, 0xf9, 0x22, 0x4d, 0xd1, 0xd3, 0xfa,
  0x8e, 0x03, 0x30, 0x5f, 0xd7, 0x35, 0xf7, 0x89, 0xcb, 0xc0, 0xde, 0x3f,
  0x02, 0x05, 0xf2, 0x4e, 0x02, 0x2d, 0x0d, 0xde, 0x56, 0x0e, 0x7b, 0x39,
  0x88, 0x5f, 0xd1, 0x3e, 0xda, 0x25, 0xa8, 0xf6, 0xfa, 0x6a, 0xe1, 0x7f,
  0xb0, 0x17, 0xc8, 0xda, 0x6a, 0xef, 0x23, 0xad, 0x30, 0xf0, 0x45, 0x6f,
  0x1d, 0x0a, 0x43, 0xfa, 0x24, 0x5a, 0xd5, 0x4e, 0x10, 0x2f, 0xef, 0x1d,
  0x37, 0xdd, 0x5f, 0x42, 0x03, 0x4f, 0x3a, 0x29, 0xea, 0x7e, 0xd0, 0x16,
  0x00, 0x16, 0x5d, 0x3a, 0x34, 0x43, 0x3c, 0x4a, 0x03, 0x7f, 0x25, 0xce,
  0xdb, 0xdd, 0x19, 0x3a, 0xc7, 0x2e, 0xae, 0xca, 0xc9, 0x0b, 0xe8, 0xc4,
  0x2f, 0x33, 0x3e, 0x3a, 0xbb, 0x4e, 0x41, 0x14, 0x26, 0xcf, 0xa4, 0xb9,
  0xd1, 0xcb, 0x19, 0x62, 0x24, 0x50, 0x32, 0xcb, 0x64, 0xf8, 0x8c, 0xec,
  0xc6, 0x2e, 0x35, 0x30, 0xc2, 0x13, 0xe4, 0xe1, 0x60, 0x3f, 0x81, 0x1b,
  0xb5, 0xd3, 0xfb, 0xb5, 0xb1, 0x08, 0x4a, 0x02, 0x60, 0x51, 0x90, 0x28,
  0x59, 0xd8, 0x47, 0x23, 0xa3, 0x37, 0x68, 0x06, 0x35, 0x37, 0x30, 0x15,
  0x31, 0x47, 0x02, 0x2e, 0xe1, 0x19, 0x56, 0x36, 0xc1, 0x0f, 0x50, 0x11,
  0x45, 0xc9, 0x9f, 0xba, 0x28, 0xd5, 0x5b, 0x39, 0x1f, 0x37, 0x2b, 0x34,
  0x33, 0x04, 0x24, 0xa3, 0xb4, 0x19, 0xd9, 0xd7, 0x12, 0x28, 0x7f, 0x15,
  0xa0, 0xb5, 0xb1, 0xe6, 0xc3, 0x52, 0x15, 0x1b, 0x69, 0x22, 0xda, 0xab,
  0x05, 0x11, 0xba, 0xd2, 0xdc, 0x46, 0x7f, 0x4a, 0x0d, 0xb1, 0x31, 0xad,
  0x20, 0x44, 0xb8, 0x13, 0x27, 0x5c, 0xf3, 0x52, 0xdc, 0x27, 0x3e, 0xe5,
  0x08, 0xf9, 0xc7, 0xc4, 0x34, 0xd5, 0x60, 0xdb, 0xb7, 0x3e, 0x59, 0x56,
  0x6e, 0xfa, 0x60, 0xbc, 0x04, 0x4b, 0xf9, 0xa0, 0x17, 0xf8, 0x06, 0x49,
  0x35, 0xee, 0x37, 0x23, 0x1f, 0x49, 0x17, 0x13, 0x71, 0x21, 0x60, 0x17,
  0x4d, 0x0f, 0x0a, 0x3c, 0x15, 0xef, 0xc5, 0x0b, 0xfa, 0x2d, 0x53, 0x54,
  0xea, 0xe6, 0x38, 0x0f, 0xf8, 0x0b, 0x47, 0x81, 0x13, 0xc1, 0xdc, 0xfb,
  0x43, 0x61, 0x81, 0x8d, 0x0e, 0xce, 0x01, 0xff, 0x3a, 0x5b, 0x9f, 0x4a,
  0xba, 0xc9, 0x90, 0x85, 0xcc, 0xe9, 0xd2, 0xca, 0xcb, 0xd8, 0xc8, 0x0a,
  0x11, 0xe0, 0xfd, 0x8a, 0x01, 0x28, 0x25, 0x12, 0x22, 0x4d, 0xb4, 0x3d,
  0xec, 0xd6, 0xb6, 0x21, 0x20, 0xea, 0xd8, 0x2c, 0x71, 0x54, 0x3b, 0x47,
  0xe1, 0xb4, 0xeb, 0xcf, 0x1d, 0xb7, 0x81, 0xe2, 0x10, 0x46, 0x0b, 0x28,
  0x01, 0x06, 0xb6, 0xbb, 0xa8, 0xf4, 0xe5, 0xec, 0x93, 0x7b, 0x1d, 0x3c,
  0x57, 0x94, 0x2a, 0xdd, 0x1d, 0xbd, 0xec, 0xe5, 0xce, 0x3f, 0xc2, 0xbf,
  0x20, 0x98, 0xee, 0x2a, 0xdd, 0x1d, 0xb8, 0x43, 0xab, 0xc3, 0xae, 0x14,
  0xbe, 0x4b, 0xe3, 0x20, 0x95, 0x58, 0xb3, 0x01, 0xca, 0x40, 0x27, 0x7f,
  0xd3, 0xb3, 0x08, 0xa5, 0x56, 0xaa, 0xa4, 0xe5, 0xcc, 0xf8, 0xe3, 0x42,
  0x1b, 0xe1, 0xbe, 0x14, 0x9e, 0xc3, 0xc8, 0x9d, 0xb2, 0xf6, 0xdb, 0x18,
  0xd0, 0xdb, 0xf2, 0xad, 0x52, 0x58, 0xa5, 0x86, 0xc5, 0x1c, 0x4f, 0x49,
  0xc6, 0x71, 0x12, 0xfc, 0xe5, 0x12, 0x3b, 0xf1, 0x35, 0x11, 0x27, 0xdc,
  0xc9, 0x5b, 0xcb, 0x31, 0x13, 0xf3, 0x18, 0xdc, 0x30, 0xd6, 0xee, 0xe9,
  0xbc, 0x4b, 0xf4, 0xd3, 0x2b, 0xd9, 0x0c, 0xc0, 0x01, 0x1a, 0xfb, 0x28,
  0x11, 0x7f, 0x32, 0x1a, 0xd8, 0x21, 0x06, 0xa6, 0x4c, 0xe7, 0xc9, 0xef,
  0x11, 0x16, 0x7f, 0x3c, 0x2d, 0x0a, 0x51, 0xf9, 0xd3, 0xc5, 0x12, 0xe1,
  0x6f, 0x38, 0x58, 0xb3, 0x11, 0xd6, 0xfd, 0xec, 0xdb, 0x3c, 0x49, 0x09,
  0x60, 0x58, 0x24, 0x34, 0x11, 0x47, 0x4d, 0x19, 0x20, 0xbc, 0xf2, 0xce,
  0x50, 0x4d, 0x33, 0xd0, 0x4a, 0x0f, 0x00, 0x1e, 0xfe, 0xd5, 0x18, 0xd3,
  0x41, 0xf8, 0xd0, 0xfe, 0xec, 0xdf, 0xe4, 0x9a, 0xe2, 0x97, 0xbe, 0xa1,
  0xc2, 0xd2, 0x5a, 0x44, 0xe1, 0x4a, 0xf9, 0x85, 0x01, 0x81, 0xa8, 0x9e,
  0xe0, 0x1d, 0xba, 0x16, 0xa9, 0x36, 0x1f, 0x85, 0x0d, 0xa9, 0x1c, 0xbb,
  0x11, 0xd4, 0x55, 0xe2, 0xff, 0x35, 0xa8, 0x9d, 0x1f, 0x35, 0xd1, 0x16,
  0x35, 0xef, 0xf5, 0xe6, 0xc5, 0x1e, 0x32, 0xc4, 0xeb, 0x72, 0x4b, 0x1b,
  0xe2, 0x2c, 0xd1, 0xe1, 0xbd, 0x45, 0xef, 0xcf, 0x1f, 0x7f, 0x43, 0x04,
  0xfc, 0xf2, 0x0e, 0x26, 0xd5, 0x3b, 0xd5, 0xfa, 0x22, 0x70, 0xc9, 0xdb,
  0x11, 0x2b, 0x1b, 0x10, 0x0b, 0xf7, 0x07, 0x34, 0x13, 0x6f, 0x31, 0xff,
  0x0e, 0xd6, 0xde, 0x69, 0x27, 0x5b, 0x8f, 0x10, 0xfa, 0x49, 0xd3, 0xe9,
  0x32, 0xfc, 0x65, 0x12, 0x8c, 0x96, 0x86, 0x5f, 0xf5, 0x1e, 0x27, 0x14,
  0x50, 0xc3, 0x40, 0xe4, 0xe0, 0xc4, 0x01, 0x4f, 0x45, 0x16, 0xf2, 0x3a,
  0xe7, 0x65, 0xe6, 0x28, 0x98, 0xaf, 0x9a, 0x38, 0x58, 0xea, 0xa1, 0x7f,
  0xe2, 0x45, 0x3c, 0x41, 0x4a, 0xdb, 0xdc, 0xee, 0x3b, 0xa9, 0x5b, 0x71,
  0x62, 0x1e, 0xde, 0x56, 0x23, 0xf4, 0x4d, 0x20, 0xfb, 0x44, 0x5c, 0x64,
  0x3a, 0x3a, 0xdc, 0xc5, 0x0d, 0xb7, 0xad, 0xf7, 0xbe, 0x3f, 0xff, 0x7f,
  0xee, 0xc9, 0xd6, 0x39, 0xac, 0x18, 0x43, 0x08, 0xff, 0xd2, 0xd7, 0x4c,
  0x39, 0x21, 0x81, 0x8d, 0x2b, 0x34, 0xee, 0xdd, 0x23, 0xda, 0xe1, 0xe8,
  0x40, 0xce, 0xdd, 0xa6, 0xc7, 0xef, 0x1d, 0xfa, 0x49, 0x2a, 0xdb, 0xdb,
  0xc9, 0xdb, 0xa4, 0x8c, 0xea, 0xd3, 0xf5, 0x3f, 0xca, 0xbe, 0xad, 0x1c,
  0x27, 0xe1, 0x9a, 0xea, 0xf9, 0xd1, 0xce, 0xaf, 0x37, 0xd0, 0x8f, 0xc9,
  0xb3, 0x65, 0x60, 0x45, 0x30, 0x48, 0x2c, 0x36, 0xa2, 0xde, 0x6e, 0xea,
  0xa9, 0xba, 0x4f, 0xc1, 0x2c, 0x5a, 0xa9, 0x59, 0x5f, 0x4d, 0x62, 0x20,
  0xe5, 0x24, 0xd3, 0x11, 0xfb, 0x03, 0xe0, 0x4d, 0x49, 0xef, 0x03, 0xc8,
  0xe1, 0x02, 0xe1, 0x3e, 0x1a, 0x5f, 0x27, 0x73, 0x7f, 0xcb, 0xb8, 0xe3,
  0xc8, 0xd4, 0x65, 0xea, 0xf7, 0x39, 0x99, 0x3b, 0x45, 0x3f, 0x07, 0x10,
  0x59, 0xdb, 0x3d, 0x95, 0x58, 0xee, 0x2d, 0xcc, 0x3d, 0x49, 0x21, 0xb4,
  0xd9, 0xb0, 0x7f, 0xe8, 0x2e, 0xcc, 0xcc, 0x41, 0xfa, 0xd4, 0xd9, 0xe5,
  0x18, 0x66, 0xa8, 0xdd, 0xfb, 0x56, 0x87, 0x78, 0xef, 0xbd, 0xe0, 0xeb,
  0xb2, 0xdc, 0x3c, 0x1c, 0x77, 0x39, 0x37, 0x26, 0x7f, 0xb4, 0x12, 0xc8,
  0xce, 0xfa, 0xc6, 0xc0, 0x68, 0xfb, 0x2e, 0xc1, 0x0d, 0xc6, 0x27, 0x4b,
  0xee, 0xcc, 0x0b, 0x07, 0x47, 0x1d, 0x68, 0xbe, 0x32, 0x40, 0x07, 0x34,
  0x36, 0x04, 0x55, 0xcb, 0x54, 0x40, 0x33, 0xd1, 0x41, 0x66, 0xe7, 0x05,
  0x46, 0xd0, 0xff, 0xff, 0x04, 0x00, 0x00, 0x00, 0x80, 0x00, 0x00, 0x00,
  0xad, 0x01, 0x00, 0x00, 0x49, 0x02, 0x00, 0x00, 0xae, 0xff, 0xff, 0xff,
  0xc7, 0x00, 0x00, 0x00, 0xa4, 0x00, 0x00, 0x00, 0xf8, 0x00, 0x00, 0x00,
  0xff, 0x00, 0x00, 0x00, 0x2c, 0x02, 0x00, 0x00, 0xc0, 0xff, 0xff, 0xff,
  0xb6, 0x00, 0x00, 0x00, 0x4f, 0x00, 0x00, 0x00, 0x6a, 0x01, 0x00, 0x00,
  0x4b, 0x00, 0x00, 0x00, 0x99, 0x01, 0x00, 0x00, 0x24, 0x02, 0x00, 0x00,
  0x3c, 0x00, 0x00, 0x00, 0x38, 0xfe, 0xff, 0xff, 0x93, 0x00, 0x00, 0x00,
  0xb2, 0x00, 0x00, 0x00, 0xe3, 0xff, 0xff, 0xff, 0xbc, 0xff, 0xff, 0xff,
  0x7a, 0x00, 0x00, 0x00, 0xae, 0x01, 0x00, 0x00, 0xdc, 0x00, 0x00, 0x00,
  0x16, 0x00, 0x00, 0x00, 0x33, 0x00, 0x00, 0x00, 0x6b, 0x00, 0x00, 0x00,
  0x9f, 0x00, 0x00, 0x00, 0xbb, 0x00, 0x00, 0x00, 0xb9, 0xff, 0xff, 0xff,
  0xac, 0x00, 0x00, 0x00, 0xa9, 0x00, 0x00, 0x00, 0xd2, 0xd0, 0xff, 0xff,
  0x04, 0x00, 0x00, 0x00, 0x00, 0x10, 0x00, 0x00, 0x44, 0x2a, 0x12, 0x0e,
  0x0e, 0x53, 0xf4, 0x39, 0x64, 0x15, 0x08, 0xf6, 0xf3, 0xcf, 0xd0, 0x62,
  0x62, 0xee, 0x15, 0x1b, 0xf5, 0x48, 0x41, 0xcb, 0x3f, 0xf5, 0xdb, 0xe4,
  0xde, 0xe5, 0x0d, 0x0a, 0x3b, 0x05, 0x01, 0xc5, 0xb4, 0xd1, 0xd1, 0x24,
  0x54, 0x3b, 0x7f, 0xaa, 0x3f, 0x5a, 0xd3, 0xe3, 0x11, 0x0f, 0xf3, 0x23,
  0x3b, 0x36, 0xd6, 0x0e, 0xf3, 0xf5, 0xdb, 0xb9, 0x12, 0x8c, 0xc7, 0x2b,
  0x1d, 0x04, 0x46, 0xd7, 0xea, 0xd6, 0xc0, 0x57, 0xe9, 0xd6, 0x24, 0x2f,
  0xb7, 0xd4, 0x03, 0x41, 0x5d, 0x37, 0xdc, 0xb6, 0xe1, 0x58, 0xd7, 0xf4,
  0xf8, 0xac, 0x9e, 0xda, 0xc9, 0x20, 0x03, 0xbf, 0x03, 0x37, 0xd6, 0xbb,
  0xe5, 0xf4, 0x32, 0x13, 0xe2, 0x46, 0x57, 0xf4, 0x39, 0x31, 0x1d, 0xe7,
  0x32, 0x4a, 0x51, 0xa2, 0xde, 0x4d, 0xe3, 0x20, 0x0f, 0x9d, 0xeb, 0x32,
  0xbb, 0x28, 0x4a, 0xad, 0x3c, 0xd3, 0xde, 0x17, 0x40, 0xd8, 0xb3, 0x38,
  0xda, 0x3b, 0x21, 0x0b, 0x06, 0x26, 0x11, 0x2e, 0x97, 0xd7, 0x0d, 0xce,
  0x16, 0x30, 0x4c, 0x0d, 0xfd, 0x2a, 0x6c, 0x10, 0xf0, 0x3c, 0x21, 0x7c,
  0x0e, 0xe6, 0xff, 0xbd, 0x45, 0x9c, 0x07, 0xd1, 0xa4, 0xef, 0xbe, 0xc0,
  0x49, 0xeb, 0xf9, 0x3a, 0xe2, 0xb3, 0xc1, 0xf9, 0x64, 0xcd, 0x51, 0x1d,
  0xd5, 0x2f, 0x14, 0xc3, 0x00, 0xcf, 0x5d, 0x45, 0xe8, 0x13, 0x1d, 0x08,
  0x3e, 0xd4, 0x24, 0x27, 0xe0, 0x27, 0xb2, 0xed, 0x4b, 0xc8, 0x21, 0xbf,
  0x29, 0x97, 0x0d, 0x0a, 0x71, 0x23, 0x53, 0xdc, 0x1e, 0xe9, 0x48, 0xfa,
  0xd7, 0x23, 0xfb, 0x74, 0x12, 0x38, 0xb3, 0xdf, 0xd2, 0x81, 0x05, 0x3a,
  0xfd, 0x0f, 0x26, 0xf4, 0xdc, 0x9e, 0xd6, 0xfe, 0xc6, 0xd3, 0x53, 0xdc,
  0x24, 0xf0, 0xd2, 0xfd, 0xc1, 0xfd, 0xeb, 0x28, 0x3e, 0x1c, 0x46, 0x5d,
  0x10, 0x2c, 0xf6, 0x29, 0xd4, 0x94, 0xd8, 0x05, 0xa6, 0xd3, 0xb4, 0xe5,
  0xc1, 0x06, 0x52, 0x3b, 0xd7, 0xbc, 0x22, 0x15, 0x05, 0x21, 0x3d, 0xb8,
  0xde, 0x57, 0x5d, 0xcf, 0xda, 0xe7, 0x35, 0x55, 0x4f, 0x00, 0x1c, 0x21,
  0x3b, 0xb0, 0xe3, 0xf7, 0x11, 0x4c, 0xd4, 0xc8, 0xbf, 0xc5, 0x06, 0xfb,
  0x0b, 0xab, 0x13, 0xe0, 0x43, 0xc6, 0x15, 0x0f, 0xce, 0x35, 0x4b, 0x8b,
  0xfc, 0x25, 0x0f, 0x1f, 0xf9, 0x35, 0x60, 0xf8, 0x41, 0x29, 0x2e, 0x34,
  0xb9, 0x31, 0xa4, 0xdc, 0x97, 0xd5, 0x22, 0x2f, 0x01, 0x25, 0xf5, 0xfe,
  0x67, 0x43, 0x38, 0xf1, 0xa0, 0x4e, 0xe1, 0x81, 0xb0, 0x35, 0x0f, 0xf4,
  0xf0, 0x44, 0xdf, 0xdb, 0x09, 0xa5, 0x1a, 0xfa, 0x94, 0x06, 0x00, 0xfe,
  0xa2, 0xf5, 0x21, 0xc4, 0xc4, 0x37, 0x25, 0xba, 0x31, 0x1b, 0x55, 0x1c,
  0xa9, 0x6f, 0x23, 0xee, 0xaa, 0x3a, 0x0c, 0x33, 0xb8, 0xf2, 0x42, 0x10,
  0xfb, 0xf0, 0x50, 0x85, 0x47, 0xc8, 0x05, 0xab, 0xd5, 0x35, 0x1a, 0xd3,
  0xcf, 0xd1, 0x31, 0xfd, 0xeb, 0x13, 0x15, 0x39, 0x1d, 0x25, 0xc9, 0xcc,
  0x48, 0x36, 0x40, 0xe8, 0x0c, 0xd2, 0x44, 0xb3, 0x23, 0xbd, 0x33, 0xac,
  0xc4, 0x13, 0xc0, 0xa0, 0xee, 0xf1, 0xf6, 0x0d, 0x24, 0x3b, 0x48, 0x11,
  0x21, 0x6c, 0x0a, 0x4a, 0xfe, 0xe1, 0x18, 0xc3, 0xfe, 0x0e, 0x69, 0xf1,
  0xcc, 0x1a, 0xb0, 0xb7, 0xcb, 0x47, 0x4a, 0x8f, 0x3f, 0xd8, 0xb2, 0xc2,
  0xa6, 0xf8, 0x02, 0x3a, 0x16, 0x06, 0x6d, 0xf3, 0x7f, 0x35, 0xc6, 0xc0,
  0xea, 0xb5, 0x1d, 0x2e, 0x0b, 0xdd, 0x13, 0xf0, 0x28, 0x1f, 0xdc, 0xb1,
  0x94, 0xf7, 0x6b, 0x2e, 0xfb, 0xf7, 0x0b, 0xd1, 0x22, 0xcc, 0xb0, 0x33,
  0xbd, 0xdb, 0x71, 0x45, 0x76, 0x43, 0xaa, 0x21, 0x44, 0xfe, 0x4b, 0xf2,
  0x6b, 0xd3, 0x53, 0x2b, 0x63, 0x48, 0xe9, 0xc8, 0x79, 0x7f, 0xb4, 0x63,
  0xab, 0xd8, 0x22, 0xe2, 0xb9, 0xfc, 0x9f, 0xe3, 0xd3, 0x33, 0x47, 0x12,
  0xe9, 0x16, 0x1a, 0xf8, 0x45, 0xde, 0x55, 0x47, 0x21, 0x22, 0x19, 0x45,
  0xad, 0x15, 0x23, 0x27, 0x5c, 0xef, 0x23, 0x4d, 0xae, 0xbf, 0x56, 0xbb,
  0xd9, 0xc3, 0xb6, 0xc7, 0xe1, 0x4f, 0x18, 0xe1, 0xd2, 0x19, 0xd2, 0x1d,
  0x23, 0xf9, 0x38, 0xbb, 0x04, 0xf6, 0x1d, 0x01, 0xd0, 0x16, 0x59, 0xfd,
  0x34, 0x0e, 0x3b, 0x1e, 0x23, 0x2c, 0xe8, 0x8e, 0x48, 0x45, 0x4f, 0xbc,
  0xd4, 0xc1, 0x20, 0x4a, 0x9e, 0x0c, 0xca, 0x66, 0xd9, 0x08, 0x42, 0x1c,
  0xc7, 0xec, 0x68, 0xcf, 0xd4, 0xe3, 0x1f, 0x08, 0x5c, 0x2a, 0xfb, 0x6b,
  0xca, 0x50, 0x04, 0xdf, 0xde, 0xb3, 0x01, 0x39, 0xf4, 0x56, 0x0c, 0xa8,
  0x04, 0x18, 0x2b, 0x39, 0x2e, 0xa9, 0x2b, 0xf7, 0x1b, 0xa3, 0xbe, 0x0f,
  0x1a, 0x40, 0x3d, 0x34, 0x44, 0xeb, 0xe0, 0xcf, 0x8f, 0x3d, 0x39, 0xb4,
  0xf7, 0xf4, 0x4b, 0xf4, 0xa0, 0x1a, 0x0b, 0xfe, 0x0b, 0x0f, 0x04, 0xd3,
  0x44, 0xa0, 0x5e, 0x44, 0xc4, 0x4d, 0x2a, 0xfc, 0x46, 0x65, 0x02, 0x48,
  0x44, 0xc5, 0x4c, 0x1e, 0xa4, 0xca, 0xac, 0x48, 0x52, 0xf1, 0xe8, 0xaa,
  0xad, 0x31, 0xfb, 0x25, 0x54, 0xae, 0xcf, 0x34, 0x19, 0x3c, 0x14, 0x0e,
  0xce, 0xfc, 0x30, 0x0e, 0x3c, 0x31, 0xcd, 0x1f, 0x52, 0x1e, 0x23, 0x04,
  0xcf, 0xde, 0x8d, 0xb7, 0xde, 0xf0, 0x4d, 0xfd, 0xd6, 0xcd, 0xea, 0xd2,
  0xe6, 0x3e, 0x42, 0xed, 0x02, 0x1e, 0x23, 0xb6, 0xd0, 0x15, 0xef, 0xf6,
  0x33, 0xfd, 0x13, 0x4a, 0x63, 0xfc, 0xc7, 0x0e, 0xa3, 0x5e, 0xda, 0xfa,
  0x6b, 0x8d, 0xde, 0xc3, 0xa5, 0x21, 0x08, 0xae, 0xf6, 0xcd, 0x10, 0xf0,
  0xc7, 0x1f, 0x7f, 0x20, 0x2d, 0x05, 0xd3, 0x21, 0x47, 0xcb, 0xca, 0xd1,
  0x4a, 0xe1, 0xe5, 0xe8, 0x4e, 0xc9, 0xff, 0x19, 0x40, 0x28, 0xc7, 0xd2,
  0xdf, 0xba, 0x3a, 0x2a, 0x22, 0xd2, 0x31, 0x2e, 0x61, 0x11, 0xca, 0xd2,
  0x37, 0x2a, 0x1d, 0x21, 0x0b, 0xe3, 0x37, 0xda, 0x13, 0x01, 0xdd, 0x27,
  0x2b, 0xb0, 0xf2, 0x27, 0xcf, 0x33, 0xb7, 0xc6, 0xe6, 0x9b, 0x7a, 0xc3,
  0xd8, 0x36, 0xd9, 0xf7, 0x36, 0x34, 0xdd, 0x43, 0xfd, 0x18, 0x15, 0x1e,
  0x4d, 0x26, 0x36, 0xec, 0x35, 0xd9, 0x29, 0x9a, 0x27, 0xeb, 0xb8, 0x06,
  0x4d, 0xdf, 0x1d, 0xc5, 0x42, 0xa6, 0x3c, 0x0a, 0xb9, 0x25, 0x2a, 0x5c,
  0x59, 0xd5, 0xc9, 0x21, 0x0e, 0x44, 0x25, 0xce, 0xfe, 0x21, 0x3c, 0xf4,
  0x04, 0x30, 0xbd, 0xfb, 0xc7, 0x1c, 0x17, 0xe0, 0xda, 0xce, 0xc0, 0xe4,
  0xff, 0xe5, 0x7f, 0x39, 0xbf, 0xbd, 0xb7, 0x27, 0x31, 0xda, 0xf8, 0x0e,
  0x0b, 0xc6, 0xc1, 0xd7, 0x51, 0x68, 0x10, 0xd2, 0x7e, 0x13, 0xe7, 0xdd,
  0xf2, 0x37, 0xed, 0xc6, 0x42, 0xa5, 0xd9, 0x3c, 0x6d, 0x6f, 0x05, 0xc4,
  0x97, 0x46, 0x3d, 0xd7, 0xd6, 0xc9, 0xf6, 0x26, 0x21, 0xd8, 0x42, 0x6b,
  0xc5, 0xfc, 0x56, 0x11, 0x7f, 0x61, 0xc9, 0x50, 0xc3, 0xef, 0x08, 0xdf,
  0xb4, 0xe4, 0xc3, 0x7b, 0x5a, 0x41, 0x4a, 0x48, 0xf3, 0xae, 0x9e, 0xbd,
  0x1e, 0xd7, 0xbb, 0x23, 0x84, 0xd2, 0x07, 0x2c, 0x5d, 0x49, 0x19, 0x3a,
  0x43, 0xf0, 0xb0, 0x02, 0x9f, 0xe4, 0x3c, 0x35, 0xfb, 0x15, 0xe8, 0x50,
  0x30, 0xa5, 0xaa, 0x54, 0x1a, 0xa1, 0x90, 0xcd, 0xac, 0xdb, 0x46, 0x2e,
  0x07, 0x58, 0x46, 0x2e, 0xc4, 0x1b, 0x09, 0xf7, 0x21, 0x06, 0x2d, 0x43,
  0xb6, 0x10, 0xf7, 0xd4, 0x52, 0xdf, 0x6c, 0x2a, 0x3a, 0xdf, 0xa1, 0x94,
  0x13, 0xc1, 0x88, 0xb4, 0x0f, 0xf6, 0x62, 0xd6, 0xc0, 0x5a, 0x41, 0xf9,
  0x0a, 0x42, 0xfa, 0x32, 0xc7, 0xe6, 0x19, 0x31, 0xbb, 0x51, 0x03, 0xd3,
  0x1f, 0x43, 0xc9, 0x32, 0xbf, 0x44, 0xe2, 0xf9, 0x01, 0x2b, 0x41, 0xc9,
  0x21, 0x0c, 0xe2, 0x26, 0x4b, 0xbc, 0x00, 0x24, 0xf2, 0xfe, 0x3d, 0x3d,
  0xa4, 0xf6, 0xb0, 0xed, 0xf9, 0x2b, 0x2b, 0x3a, 0x2f, 0xf0, 0xb7, 0x54,
  0xd0, 0xe8, 0x3f, 0xbd, 0xb3, 0xff, 0x2f, 0xe3, 0x2a, 0xdf, 0xe0, 0xfc,
  0x30, 0xfe, 0xef, 0x24, 0xfe, 0xf7, 0xde, 0x39, 0x05, 0xed, 0xf0, 0x2b,
  0x0c, 0x38, 0x24, 0x31, 0xdc, 0x33, 0x2a, 0x02, 0xd3, 0x38, 0xa3, 0x2c,
  0x1d, 0xe5, 0x1f, 0xfb, 0x5a, 0xf1, 0xf8, 0xdf, 0xf2, 0xdc, 0xcc, 0xeb,
  0xbb, 0xe7, 0x28, 0x07, 0xdf, 0xd3, 0xdc, 0xdf, 0xd2, 0x66, 0xff, 0xce,
  0x09, 0x3a, 0x4c, 0x45, 0x08, 0xc9, 0x0c, 0x3f, 0x3e, 0x2d, 0x3a, 0x81,
  0xee, 0xf2, 0xa3, 0x05, 0x1d, 0xa4, 0xd9, 0x5b, 0x2c, 0xe4, 0xb7, 0x16,
  0x31, 0xf2, 0xb1, 0x06, 0x40, 0xd0, 0xbc, 0x35, 0xc3, 0x1b, 0xde, 0x23,
  0xef, 0x53, 0x24, 0xc3, 0x4d, 0x31, 0x14, 0xaa, 0x09, 0xea, 0xd4, 0x4d,
  0x0a, 0x54, 0x76, 0xfe, 0x28, 0xc4, 0xea, 0xdb, 0x4f, 0xf4, 0x16, 0x7f,
  0x24, 0xe7, 0x1e, 0x64, 0xe3, 0x06, 0xa9, 0xec, 0x33, 0x28, 0xda, 0xfe,
  0xcf, 0xf7, 0xb8, 0x4f, 0x2e, 0xb1, 0xd8, 0x4c, 0xd2, 0x29, 0x2e, 0xda,
  0xa8, 0x2e, 0x50, 0x0d, 0xf2, 0xdb, 0xdb, 0x6d, 0xce, 0x27, 0x2d, 0x4c,
  0x34, 0x1b, 0x93, 0x04, 0x43, 0x32, 0x4f, 0xb8, 0x28, 0x1e, 0xd3, 0x3c,
  0x35, 0xec, 0xe1, 0xc3, 0x03, 0x11, 0xdf, 0xcc, 0x03, 0xfa, 0xc3, 0xba,
  0x40, 0xe1, 0x2a, 0x52, 0xfc, 0x02, 0xc0, 0xec, 0xce, 0x23, 0xa6, 0xdc,
  0x1d, 0x5c, 0xd8, 0x25, 0x4c, 0xc6, 0xe4, 0xbe, 0xc9, 0x4a, 0xed, 0xae,
  0x29, 0xf5, 0xf6, 0xc8, 0xc4, 0x28, 0xe9, 0x7a, 0x33, 0x0f, 0x40, 0xb0,
  0xfd, 0xc0, 0x3b, 0x49, 0x22, 0xd6, 0x12, 0xeb, 0xac, 0x5e, 0x45, 0xfd,
  0x04, 0xb9, 0x36, 0xdd, 0x23, 0xe4, 0x2d, 0x0e, 0x0e, 0x16, 0xe1, 0xed,
  0xa8, 0x9f, 0xe4, 0x09, 0xf5, 0x75, 0x40, 0xb9, 0xdc, 0xa6, 0x40, 0x5d,
  0x5b, 0xf1, 0x3c, 0x3c, 0x26, 0x11, 0x3c, 0xf7, 0xf6, 0x26, 0xeb, 0xd0,
  0x0c, 0xc4, 0xe9, 0x53, 0x1c, 0x2f, 0x39, 0xdd, 0xe5, 0xdb, 0xe6, 0x14,
  0x49, 0x01, 0x35, 0x02, 0xd3, 0xd5, 0xe8, 0x4f, 0x20, 0x5c, 0xd9, 0x0c,
  0xbb, 0x1f, 0x33, 0x20, 0xa8, 0xb6, 0xc1, 0x2c, 0xe3, 0xfe, 0x2b, 0xd7,
  0x39, 0x43, 0xe1, 0x36, 0xc3, 0x04, 0xfa, 0x58, 0x7f, 0x15, 0x3b, 0xce,
  0x4c, 0xe7, 0xe7, 0xb4, 0x77, 0xe5, 0xe4, 0xe1, 0xde, 0x38, 0xc3, 0x56,
  0x37, 0xd0, 0xf7, 0x01, 0x12, 0x62, 0x34, 0x3f, 0x1b, 0x17, 0x4f, 0xca,
  0x68, 0x17, 0x12, 0x12, 0xd4, 0xd6, 0xb5, 0x23, 0xd6, 0x64, 0x0e, 0xbe,
  0xd3, 0x6c, 0xd9, 0xff, 0x1b, 0xc7, 0xbe, 0xba, 0x17, 0xfe, 0xe6, 0xce,
  0x2d, 0x08, 0xda, 0xb4, 0xbb, 0x8f, 0x33, 0x15, 0x5d, 0x62, 0x16, 0xf7,
  0x6c, 0xaa, 0xd1, 0x13, 0xbd, 0x0c, 0x5d, 0x94, 0xb5, 0xeb, 0x2f, 0x22,
  0x26, 0xea, 0x9f, 0xf0, 0x4e, 0x50, 0x27, 0xac, 0xdd, 0xae, 0xcb, 0xc0,
  0x12, 0x09, 0x18, 0x35, 0xe8, 0x55, 0xcf, 0xd7, 0x1d, 0x1e, 0xb0, 0xee,
  0xe6, 0x28, 0x21, 0x0d, 0xe3, 0x16, 0x03, 0x1b, 0xd0, 0x2b, 0x02, 0xc2,
  0x28, 0xdd, 0x35, 0x05, 0xf6, 0xe6, 0xf7, 0x0c, 0xc9, 0xe7, 0x0f, 0x01,
  0x66, 0x50, 0xb3, 0x29, 0xf0, 0x49, 0x9d, 0x34, 0x43, 0x7f, 0xfd, 0x16,
  0x4a, 0x48, 0xeb, 0x1f, 0xdc, 0x1a, 0x91, 0xfb, 0x4d, 0xd4, 0x44, 0x08,
  0x3b, 0xfb, 0x1c, 0x17, 0xaa, 0x11, 0xc1, 0xfd, 0xd3, 0xc2, 0x45, 0xe4,
  0xc8, 0x4e, 0x17, 0x5b, 0xf0, 0xa5, 0x12, 0xb6, 0x9b, 0x26, 0x22, 0x24,
  0x45, 0x42, 0xc2, 0xe2, 0xc7, 0x0e, 0xf9, 0x07, 0x41, 0x57, 0x99, 0xda,
  0x63, 0x2c, 0x4a, 0xda, 0xf6, 0xcb, 0x5d, 0x97, 0x2a, 0xf4, 0x13, 0x01,
  0x1a, 0xef, 0xc3, 0xf7, 0x2e, 0xd1, 0xbb, 0xb2, 0xcb, 0x39, 0xec, 0xf9,
  0xe2, 0xf5, 0x9e, 0x3b, 0x50, 0xdc, 0xcd, 0x04, 0x69, 0x0d, 0x37, 0x37,
  0x94, 0xad, 0xd8, 0x1b, 0x17, 0xf0, 0x33, 0xcc, 0xf7, 0x4a, 0x4a, 0xd0,
  0xd7, 0xd3, 0xca, 0xd6, 0xc9, 0x01, 0x02, 0x0a, 0x2b, 0x1a, 0x81, 0x7a,
  0x2b, 0x45, 0xba, 0xde, 0x6e, 0xc8, 0x63, 0xe7, 0x1b, 0xf6, 0x15, 0xda,
  0xff, 0xca, 0xbc, 0x18, 0x0a, 0x21, 0xde, 0x2e, 0x39, 0x10, 0x15, 0xfa,
  0xee, 0x22, 0x05, 0x14, 0x0b, 0x14, 0x10, 0x74, 0x35, 0xcc, 0xf0, 0xd4,
  0x2d, 0xd3, 0x72, 0x40, 0x37, 0x33, 0x54, 0xd0, 0xc4, 0x81, 0xf9, 0x2c,
  0xf3, 0xc3, 0x01, 0x0b, 0xc8, 0x2e, 0x3e, 0xfc, 0xde, 0xe8, 0x0b, 0xc9,
  0x32, 0xae, 0x06, 0xe3, 0xf7, 0x29, 0x17, 0xe5, 0xb4, 0x04, 0xe5, 0x13,
  0x18, 0xf4, 0x06, 0x2d, 0x03, 0xaf, 0xf8, 0x46, 0x95, 0x23, 0x17, 0x52,
  0xa7, 0xf9, 0xda, 0xcd, 0xc4, 0x0d, 0x3e, 0xad, 0x48, 0xe3, 0xff, 0xcc,
  0xe9, 0x21, 0xbf, 0xf7, 0xd5, 0x2a, 0xe0, 0x39, 0xff, 0x26, 0x5d, 0xc9,
  0xf3, 0x9b, 0xcd, 0xdf, 0xc4, 0xb6, 0xdf, 0x14, 0x17, 0x08, 0x28, 0xbf,
  0x03, 0xc2, 0x09, 0x0f, 0x44, 0xa6, 0x57, 0xf1, 0x18, 0x4f, 0x17, 0x07,
  0x9e, 0x3b, 0xd1, 0xd8, 0x3b, 0x1b, 0x49, 0xd2, 0xdd, 0xa0, 0x06, 0x39,
  0x81, 0x16, 0xd1, 0xfe, 0xad, 0x45, 0x1b, 0xfc, 0xfa, 0xfe, 0x46, 0x1b,
  0x37, 0xce, 0xfa, 0xf0, 0xf2, 0x6b, 0x39, 0xd0, 0xef, 0x47, 0x23, 0xde,
  0x5c, 0xda, 0xf2, 0xc3, 0xe5, 0x26, 0x9f, 0xb6, 0xfe, 0x34, 0x3b, 0x63,
  0x4b, 0xd7, 0x26, 0xe7, 0x57, 0xe9, 0x2f, 0x1f, 0xd7, 0x05, 0xed, 0x54,
  0x69, 0x64, 0x27, 0xbc, 0x3b, 0x08, 0xb0, 0xbf, 0xe4, 0x39, 0x4b, 0xf1,
  0xf7, 0xdd, 0x9f, 0xd7, 0xb4, 0x27, 0xeb, 0x3b, 0xec, 0xdd, 0x27, 0xcc,
  0xff, 0xc1, 0x6d, 0xec, 0xc2, 0xdc, 0x20, 0xcc, 0x5c, 0x2c, 0xc0, 0xcd,
  0xbc, 0x32, 0xa4, 0xf8, 0xd9, 0x29, 0x0b, 0xaf, 0x5b, 0x92, 0xeb, 0xa0,
  0x2c, 0x21, 0x2d, 0x7f, 0x09, 0x61, 0xd6, 0x37, 0xd3, 0x04, 0xf7, 0x00,
  0x37, 0xb3, 0xf1, 0xe8, 0x2a, 0x5b, 0xf0, 0x16, 0xd8, 0x4c, 0xdd, 0xe7,
  0x56, 0x19, 0xf7, 0xd5, 0xeb, 0xaa, 0x3c, 0x12, 0xad, 0xe5, 0x95, 0x1b,
  0x35, 0x34, 0x49, 0x2c, 0xdd, 0xb2, 0xf7, 0x20, 0xad, 0x1b, 0xf6, 0x28,
  0x47, 0x41, 0x2a, 0xfd, 0xdd, 0xb5, 0xae, 0xc5, 0xf7, 0x31, 0x65, 0xfe,
  0x20, 0x3f, 0x68, 0x40, 0x50, 0xd5, 0x6e, 0xbb, 0x18, 0xdd, 0xc6, 0x33,
  0x30, 0xd0, 0xbd, 0x75, 0xce, 0xf1, 0x1d, 0x48, 0xab, 0xea, 0xdf, 0xe1,
  0xf8, 0xa1, 0x77, 0xbb, 0x31, 0x13, 0xde, 0x69, 0x6f, 0x0f, 0xea, 0x2f,
  0x70, 0xb6, 0x78, 0x42, 0xc3, 0x12, 0x8d, 0xb2, 0x15, 0x23, 0xf8, 0x77,
  0xc3, 0x02, 0xa9, 0x7f, 0xef, 0x02, 0x1e, 0xf7, 0x3d, 0x3b, 0x3f, 0x2b,
  0xda, 0x37, 0x2b, 0x22, 0x58, 0x07, 0x4c, 0xda, 0x54, 0x8f, 0xec, 0x11,
  0xee, 0x3c, 0xa2, 0xf8, 0xa5, 0x67, 0x22, 0x66, 0xbb, 0x20, 0x87, 0x58,
  0xc1, 0x30, 0xb7, 0xce, 0x60, 0x3f, 0x56, 0xfb, 0xcd, 0xea, 0x67, 0xd8,
  0x22, 0x4e, 0xf2, 0x16, 0x34, 0x0a, 0xd8, 0x02, 0x26, 0x47, 0x16, 0x97,
  0xc7, 0xde, 0x49, 0x5d, 0x9e, 0x39, 0x90, 0xcc, 0x5b, 0xd7, 0xba, 0x31,
  0xf4, 0xeb, 0x26, 0xc8, 0x0c, 0x30, 0xe3, 0xf1, 0x06, 0xd7, 0xe3, 0xf3,
  0x51, 0x27, 0xec, 0xde, 0x40, 0xf6, 0xe7, 0xca, 0xf0, 0x4b, 0x3c, 0x1b,
  0x0c, 0x30, 0x1b, 0x14, 0xbd, 0x09, 0xc5, 0x53, 0xe7, 0x28, 0x38, 0xd3,
  0x23, 0x02, 0xef, 0x2b, 0xb7, 0xca, 0xb2, 0x97, 0x6e, 0xb9, 0xd6, 0x4b,
  0x3f, 0x03, 0xef, 0x44, 0x12, 0x44, 0xc9, 0x2a, 0xc0, 0x49, 0xfa, 0x26,
  0xec, 0x41, 0x45, 0x32, 0x36, 0x03, 0xd2, 0x10, 0xed, 0xab, 0x1b, 0x35,
  0xb2, 0x41, 0x14, 0xc2, 0x1e, 0xe4, 0xe4, 0xd9, 0x2a, 0x02, 0xd1, 0xf2,
  0xdc, 0x34, 0x3a, 0x2a, 0x4f, 0xd7, 0x2d, 0xd7, 0x0a, 0x49, 0xd5, 0x21,
  0xd2, 0x0a, 0xf6, 0xc3, 0x05, 0x81, 0x45, 0xe6, 0x22, 0xe1, 0xd3, 0x9c,
  0xe0, 0x0b, 0xed, 0x11, 0xe2, 0x3a, 0xd9, 0xa9, 0x01, 0x1a, 0x59, 0x11,
  0x32, 0xdf, 0x42, 0x28, 0xca, 0xc6, 0xc2, 0x3e, 0x36, 0x4c, 0x19, 0x24,
  0xa8, 0x98, 0xdb, 0x2c, 0xbb, 0x25, 0xda, 0xea, 0x4a, 0x1a, 0x36, 0x2f,
  0xb2, 0x35, 0xa9, 0xfe, 0xff, 0xdb, 0xe2, 0x5a, 0x00, 0x08, 0x41, 0xc4,
  0xb3, 0x09, 0xef, 0xdc, 0x6d, 0x0a, 0xee, 0xba, 0x56, 0x45, 0x1a, 0x05,
  0x1b, 0xd3, 0x3f, 0xb1, 0xc5, 0xcd, 0x36, 0xd0, 0x02, 0x31, 0x3c, 0x00,
  0x6a, 0xf2, 0xd6, 0xf5, 0xcf, 0x56, 0xc2, 0x34, 0xdd, 0x41, 0x24, 0x19,
  0xbf, 0x92, 0x8e, 0x2e, 0xe1, 0x1f, 0x02, 0x1b, 0x55, 0x50, 0xf1, 0x68,
  0xae, 0xc0, 0xfc, 0xc7, 0xcb, 0xee, 0xf6, 0xe5, 0x47, 0x4c, 0xf7, 0x2a,
  0xf8, 0x6f, 0x18, 0x27, 0x8f, 0x52, 0xa4, 0xeb, 0x41, 0xf9, 0x0b, 0xb8,
  0x1c, 0x31, 0xf6, 0x74, 0x28, 0x2f, 0x20, 0xc5, 0xa8, 0x54, 0x6a, 0xb4,
  0x14, 0x17, 0xbb, 0xec, 0x5f, 0xc0, 0xc8, 0x7f, 0x33, 0x00, 0xc7, 0x34,
  0x1a, 0xc7, 0xf0, 0x5d, 0x5e, 0xb0, 0x9f, 0x47, 0xce, 0xf3, 0x54, 0xbe,
  0xd8, 0x2d, 0xfb, 0xda, 0xd1, 0x11, 0x48, 0x15, 0x4e, 0xb9, 0xd9, 0x2f,
  0x26, 0x06, 0xae, 0xce, 0xc0, 0xc0, 0x39, 0xb4, 0x71, 0xc9, 0xc8, 0x21,
  0xb0, 0xdc, 0x0d, 0x03, 0x11, 0xf6, 0x50, 0xc5, 0x13, 0x38, 0x38, 0x12,
  0xbb, 0xf0, 0x4e, 0xaf, 0xfb, 0xd1, 0x04, 0xef, 0x14, 0x25, 0x29, 0x1d,
  0xf7, 0xc8, 0xc4, 0xb5, 0x63, 0x3e, 0x1c, 0xc6, 0xff, 0x20, 0xf8, 0x40,
  0xd2, 0xef, 0x55, 0xf5, 0x0e, 0xe6, 0xf3, 0x4a, 0x9c, 0x2c, 0x3e, 0xaf,
  0xf3, 0x10, 0x37, 0x72, 0xfa, 0xdf, 0xcd, 0xed, 0x07, 0xaf, 0xca, 0x84,
  0x44, 0x16, 0xe3, 0xf9, 0x12, 0xe2, 0xbc, 0x02, 0x94, 0x15, 0x40, 0xee,
  0x81, 0x00, 0xd5, 0xcf, 0xb9, 0x6b, 0x0d, 0xf0, 0xef, 0xea, 0x3c, 0x44,
  0xe2, 0x23, 0xb2, 0x08, 0xdc, 0x03, 0xf7, 0xd0, 0xea, 0x31, 0x9f, 0xb3,
  0xd4, 0xe4, 0xb0, 0xc8, 0x13, 0x26, 0x09, 0xc0, 0xfb, 0x05, 0xf4, 0x8e,
  0x06, 0xfd, 0x5d, 0x0a, 0x64, 0x22, 0x2e, 0x3e, 0x49, 0xc5, 0x25, 0x16,
  0x28, 0x75, 0xc7, 0xc3, 0x11, 0x17, 0x58, 0x24, 0x05, 0xbe, 0xbc, 0x37,
  0x0b, 0xb4, 0xac, 0x5b, 0x03, 0x54, 0xe5, 0xb2, 0x36, 0xce, 0x1b, 0xc2,
  0x4c, 0x17, 0x88, 0x61, 0x31, 0x3c, 0x6c, 0x46, 0xd0, 0x17, 0x59, 0x30,
  0x9d, 0x90, 0x36, 0x0b, 0x0e, 0xd6, 0xc5, 0xda, 0x5b, 0xa7, 0x17, 0x19,
  0xd1, 0xed, 0x01, 0xe0, 0x55, 0x81, 0xdb, 0x48, 0xbd, 0x40, 0xfb, 0xc9,
  0x0d, 0xfe, 0x73, 0x08, 0x4e, 0x51, 0xcf, 0x02, 0xc2, 0xbc, 0x19, 0xf6,
  0xf0, 0x00, 0xc7, 0x5d, 0x02, 0xce, 0xbb, 0x33, 0xa3, 0x3f, 0x3c, 0xcc,
  0x7e, 0x31, 0xf0, 0xea, 0x01, 0xd7, 0xe3, 0xb6, 0xfb, 0x10, 0x60, 0x43,
  0x2e, 0x5e, 0x19, 0xe8, 0xbf, 0x9d, 0xb6, 0x6b, 0x0b, 0xca, 0xb1, 0x11,
  0x09, 0xf1, 0xf4, 0x13, 0x9f, 0x29, 0x43, 0xc1, 0xc1, 0x07, 0xe5, 0x1d,
  0xfc, 0xee, 0x0b, 0x49, 0xbd, 0xf3, 0x2c, 0xc8, 0x58, 0x15, 0x79, 0xee,
  0xad, 0xc4, 0xfe, 0xc0, 0x0e, 0x15, 0xea, 0x55, 0x03, 0xae, 0xa1, 0xfd,
  0xd1, 0x1b, 0x19, 0x58, 0xfa, 0x2a, 0xb3, 0x35, 0x05, 0xe7, 0x00, 0x12,
  0xcd, 0xf4, 0x53, 0xd5, 0xe5, 0x19, 0x62, 0x6b, 0x26, 0x2a, 0x47, 0x07,
  0x9d, 0xff, 0xd8, 0x0d, 0xcc, 0xaa, 0xb7, 0x49, 0x08, 0x36, 0xb3, 0xf7,
  0x38, 0x18, 0xcd, 0xf0, 0x45, 0xff, 0x26, 0x3c, 0xc5, 0x43, 0xbf, 0xf1,
  0x46, 0x4c, 0x77, 0x70, 0x42, 0xce, 0xeb, 0x38, 0xb5, 0xfd, 0xed, 0x0d,
  0x00, 0xb7, 0xb0, 0xfc, 0xc4, 0x06, 0x25, 0xc1, 0x01, 0xd8, 0x13, 0x56,
  0x29, 0xef, 0xe0, 0x35, 0x24, 0x57, 0xcd, 0x0d, 0x2b, 0xea, 0x7f, 0x13,
  0x2d, 0xa9, 0x43, 0xb6, 0xdc, 0xed, 0x3e, 0x67, 0xb6, 0xb2, 0x48, 0x28,
  0x1e, 0xca, 0x5b, 0xc4, 0x0f, 0x34, 0xaa, 0x07, 0x5a, 0xad, 0x28, 0xf5,
  0x29, 0xf2, 0x10, 0x2f, 0x1f, 0xe1, 0x42, 0x34, 0x0e, 0xdb, 0x4b, 0x33,
  0x87, 0x2e, 0x4d, 0xca, 0x37, 0xfe, 0xa3, 0xf7, 0x22, 0xfc, 0x51, 0xb8,
  0x06, 0xcb, 0x2d, 0xbf, 0x17, 0x1d, 0xc4, 0x0c, 0x1a, 0xc2, 0x1e, 0xa9,
  0x3d, 0xb5, 0x35, 0x33, 0xde, 0x54, 0x26, 0x3d, 0xc6, 0x13, 0x4f, 0xf8,
  0xee, 0x99, 0xe3, 0x14, 0x78, 0x33, 0x47, 0x42, 0xc4, 0x0d, 0xf5, 0x1a,
  0x25, 0xf9, 0xf2, 0x57, 0x08, 0x49, 0x43, 0xde, 0xb7, 0xbb, 0x36, 0x1f,
  0xc9, 0xf2, 0x15, 0xd7, 0x2c, 0xf4, 0xc5, 0x1c, 0xc8, 0x81, 0x4e, 0xe6,
  0x17, 0x51, 0xd3, 0xa8, 0xae, 0xcb, 0x1f, 0x16, 0x60, 0xed, 0x2d, 0x53,
  0x01, 0xc2, 0xd4, 0x05, 0xc7, 0x26, 0xa9, 0xee, 0x2f, 0xa6, 0x72, 0x18,
  0xde, 0x19, 0xf9, 0x13, 0xe1, 0xea, 0xec, 0x4b, 0xf5, 0x34, 0xf2, 0xff,
  0x2a, 0x24, 0x47, 0x0e, 0xba, 0xaf, 0xd6, 0x47, 0x51, 0xa0, 0x4d, 0x55,
  0xed, 0xfd, 0x8f, 0xa4, 0x43, 0xde, 0xdb, 0x43, 0x65, 0xaa, 0x99, 0xef,
  0xe2, 0xed, 0x4b, 0xbf, 0xad, 0xb3, 0xb4, 0x09, 0x29, 0x12, 0xde, 0xf5,
  0x0e, 0xf9, 0xaf, 0x2d, 0x54, 0x1d, 0x32, 0x49, 0x24, 0xed, 0xe8, 0xf2,
  0x11, 0x45, 0x08, 0x3e, 0xe9, 0xe0, 0xf2, 0x54, 0xba, 0xd0, 0x5c, 0x27,
  0xd9, 0x15, 0x3d, 0xbf, 0x1b, 0x10, 0xf5, 0x3b, 0x13, 0xb3, 0x50, 0x56,
  0x49, 0xd5, 0x45, 0x01, 0x14, 0xc6, 0x08, 0xcf, 0x27, 0x4b, 0x11, 0x9b,
  0x7f, 0x99, 0x3c, 0xc1, 0xc6, 0xef, 0x1a, 0xd2, 0x1a, 0x12, 0xfc, 0xcb,
  0x9f, 0x68, 0xca, 0xc8, 0x21, 0xa1, 0x00, 0x3e, 0xef, 0x28, 0xf4, 0x35,
  0xea, 0x32, 0xd5, 0x0f, 0x59, 0x62, 0x13, 0xdd, 0x6f, 0x8c, 0x08, 0x27,
  0x25, 0x08, 0x17, 0xdb, 0x66, 0x09, 0x1d, 0xef, 0x2b, 0xe8, 0x1c, 0xbf,
  0xa9, 0xff, 0xf6, 0xe2, 0x00, 0x2d, 0xb4, 0xec, 0x4d, 0xde, 0x21, 0x38,
  0x0e, 0x3a, 0xd4, 0x01, 0x62, 0xcd, 0xca, 0xc1, 0x03, 0xd4, 0xe0, 0xc4,
  0x2f, 0x40, 0x5d, 0x67, 0x70, 0x8b, 0xff, 0xb6, 0xc9, 0xf2, 0x5d, 0xc1,
  0xef, 0xe7, 0xab, 0x7c, 0x1d, 0x64, 0xd3, 0x76, 0xd3, 0xaa, 0xff, 0x56,
  0xd8, 0x56, 0x79, 0x40, 0x4a, 0x1f, 0x41, 0x41, 0x77, 0x65, 0x2f, 0xe9,
  0xff, 0xdd, 0x03, 0x13, 0xff, 0xb8, 0xfe, 0xa3, 0xff, 0xd8, 0xf6, 0x26,
  0xec, 0x36, 0x34, 0xec, 0xdd, 0x97, 0xea, 0x16, 0xfa, 0xb3, 0x33, 0x26,
  0x13, 0xfd, 0x34, 0x18, 0x02, 0x7f, 0x67, 0x08, 0x78, 0xe6, 0x09, 0xfd,
  0x31, 0xe4, 0x2b, 0xfc, 0xcc, 0x49, 0x33, 0xe8, 0x12, 0xd9, 0x0a, 0x5d,
  0x8b, 0xf2, 0xdd, 0x28, 0x00, 0xb7, 0x55, 0xf9, 0xce, 0xb2, 0xe9, 0x59,
  0xf5, 0xca, 0x4b, 0x42, 0xbe, 0x68, 0xa6, 0x2c, 0xfa, 0xd1, 0xc9, 0xac,
  0xde, 0x32, 0x12, 0x3f, 0xf0, 0x24, 0xb5, 0x5a, 0xe0, 0xbf, 0x52, 0x58,
  0x9d, 0x3a, 0xb4, 0xd9, 0xd8, 0x5c, 0x01, 0x43, 0x41, 0x61, 0x36, 0x34,
  0x2d, 0x4e, 0x00, 0xba, 0x13, 0x4f, 0xad, 0xea, 0xd7, 0x06, 0xf9, 0xde,
  0x9b, 0xaf, 0xcf, 0x03, 0x2a, 0x49, 0x0f, 0x1b, 0xfb, 0xfb, 0x2d, 0x59,
  0x17, 0xfa, 0xfd, 0xf3, 0x20, 0xd7, 0x5c, 0x2c, 0xeb, 0x04, 0xf0, 0xbd,
  0xea, 0xb3, 0x18, 0x16, 0x9d, 0x26, 0xf0, 0x23, 0x98, 0x0a, 0x55, 0xb9,
  0x31, 0xf1, 0xd0, 0x2b, 0x4a, 0x0c, 0x45, 0x0d, 0xed, 0x1d, 0xd0, 0xa6,
  0x0d, 0xe1, 0x2a, 0xaa, 0x81, 0x54, 0x23, 0x25, 0x17, 0x4b, 0xa1, 0xae,
  0x37, 0x30, 0x1a, 0xb2, 0xea, 0xf0, 0xca, 0xee, 0x79, 0xc9, 0x34, 0xef,
  0x07, 0x0a, 0x4c, 0xbc, 0x3a, 0xc8, 0x22, 0xdb, 0x4b, 0xf2, 0x69, 0xc3,
  0x2d, 0xc6, 0xcd, 0xb6, 0x5d, 0x21, 0x40, 0x1e, 0xf6, 0x12, 0x51, 0xf1,
  0xc2, 0xb1, 0x2c, 0xf6, 0xe0, 0x19, 0xd9, 0x3a, 0xa9, 0x66, 0xc3, 0x4c,
  0xd3, 0x50, 0x1b, 0x38, 0x63, 0xbe, 0x7f, 0xf9, 0x99, 0xba, 0xcd, 0x30,
  0x30, 0xc1, 0xaf, 0x57, 0xf0, 0x88, 0x2a, 0xd1, 0x04, 0xc9, 0xde, 0x46,
  0x53, 0x5d, 0x26, 0x42, 0x3e, 0x29, 0x4d, 0xe3, 0x03, 0xe6, 0xe1, 0xdc,
  0x23, 0x3b, 0x11, 0xc1, 0x99, 0xe4, 0x0c, 0x1f, 0x32, 0xc9, 0xea, 0x2a,
  0x16, 0x24, 0x48, 0x5c, 0xab, 0x06, 0x08, 0x5c, 0xe6, 0xc2, 0x3f, 0xb6,
  0xd4, 0x08, 0xd8, 0x92, 0x07, 0xde, 0x12, 0x34, 0x4b, 0x64, 0x63, 0xf8,
  0xd7, 0x45, 0x01, 0xbb, 0xef, 0x47, 0xa8, 0xe9, 0xb3, 0xdc, 0x5e, 0x59,
  0x8b, 0x2b, 0xbc, 0x17, 0x2a, 0xea, 0xf7, 0xdf, 0xbe, 0x76, 0x09, 0xe5,
  0x4f, 0x2b, 0x33, 0xcb, 0x1d, 0x0c, 0x9c, 0xd7, 0xfb, 0xc2, 0x48, 0x45,
  0x27, 0xf1, 0xeb, 0xa9, 0x4d, 0x0e, 0xf8, 0xa8, 0x07, 0xcb, 0x0e, 0xb7,
  0xf7, 0x2d, 0x28, 0x67, 0x13, 0xbe, 0xb7, 0xcb, 0x11, 0xfc, 0xee, 0x1c,
  0x81, 0x2c, 0x1f, 0x41, 0x4f, 0xf5, 0xff, 0x4e, 0xce, 0x48, 0x10, 0xe2,
  0x00, 0x16, 0x6a, 0xa2, 0xd0, 0x01, 0x70, 0xb6, 0x26, 0xe4, 0xe6, 0x2f,
  0x8a, 0xc6, 0x19, 0xc6, 0x68, 0xcf, 0x3b, 0xea, 0xd8, 0xb9, 0x27, 0x17,
  0xd8, 0xe1, 0xe6, 0xe8, 0x03, 0x7c, 0x60, 0x2d, 0x5a, 0xfb, 0xe8, 0xdc,
  0x21, 0xeb, 0x04, 0x05, 0x15, 0x31, 0xb7, 0xde, 0x15, 0xb3, 0xdd, 0xc3,
  0x1e, 0xd8, 0x28, 0xb0, 0xf4, 0xca, 0xd6, 0x31, 0x53, 0xaa, 0x5b, 0x51,
  0xc5, 0xf0, 0xbe, 0xb8, 0x79, 0x9e, 0xd8, 0xa2, 0x03, 0x58, 0x61, 0xb3,
  0xe4, 0x22, 0x05, 0x0d, 0xa8, 0xac, 0x1c, 0x3c, 0x6d, 0xfd, 0x13, 0xd3,
  0xd2, 0x07, 0x63, 0xe5, 0xa9, 0xd5, 0x1e, 0x69, 0xe1, 0x43, 0x1a, 0xd4,
  0xe2, 0xb9, 0xcf, 0x30, 0x3c, 0x45, 0xfd, 0xb8, 0xa2, 0x7c, 0x43, 0x25,
  0xd0, 0xda, 0x49, 0xee, 0x4b, 0x04, 0xf2, 0xc9, 0x73, 0x29, 0xc6, 0x1a,
  0xed, 0xe5, 0x9a, 0x03, 0x10, 0x33, 0x1f, 0x3e, 0x0d, 0x04, 0xc8, 0x43,
  0x00, 0xad, 0x2a, 0xb8, 0xef, 0x7f, 0xe8, 0x17, 0xc7, 0x06, 0xe6, 0x06,
  0xc7, 0x38, 0x6a, 0xc8, 0x28, 0xf7, 0x42, 0xcb, 0xf6, 0xf9, 0x01, 0x79,
  0xa5, 0xf6, 0x2e, 0x00, 0x3f, 0x06, 0xfa, 0x4e, 0x26, 0xc6, 0x3f, 0x33,
  0xb1, 0x61, 0xc9, 0xf0, 0x2e, 0xbb, 0x2d, 0x3a, 0x12, 0x21, 0x2a, 0xfe,
  0x06, 0x01, 0xe6, 0x13, 0xc1, 0x3a, 0xb8, 0x64, 0xc3, 0x18, 0xd2, 0xb8,
  0xdf, 0xa9, 0xd9, 0x67, 0xdf, 0x23, 0xf7, 0xe0, 0xc7, 0x18, 0xfe, 0xae,
  0xcc, 0xee, 0xc5, 0x9d, 0x3a, 0xae, 0x62, 0x01, 0x2e, 0xfd, 0x81, 0xea,
  0x9c, 0xf8, 0x36, 0xe0, 0x71, 0x48, 0x21, 0x7e, 0xc7, 0x73, 0x17, 0xbb,
  0xef, 0x19, 0xf7, 0x00, 0x20, 0x3e, 0xa1, 0xc3, 0xb0, 0x3d, 0x47, 0xb4,
  0xbb, 0x15, 0x43, 0xa0, 0x0b, 0xce, 0xf5, 0xdb, 0xa6, 0x3c, 0x2c, 0xb9,
  0xf4, 0x61, 0x63, 0x1c, 0x34, 0xfb, 0x66, 0x3d, 0xc3, 0x0a, 0x18, 0xac,
  0xfa, 0xb7, 0x3e, 0xcc, 0xd0, 0x23, 0xb0, 0xfa, 0xf0, 0xb2, 0x2a, 0xc2,
  0x55, 0x28, 0xca, 0x4b, 0xe2, 0x55, 0xdc, 0xe2, 0xee, 0xf3, 0x3b, 0x25,
  0x57, 0x6d, 0x28, 0x53, 0xc5, 0x30, 0x1e, 0xf5, 0x21, 0x64, 0xe4, 0xda,
  0xeb, 0xf1, 0x05, 0xf4, 0xcb, 0x1f, 0x53, 0xec, 0xcd, 0xb9, 0xfa, 0x5e,
  0x38, 0x25, 0x07, 0x09, 0xe3, 0x45, 0xce, 0xda, 0xe2, 0x2c, 0x67, 0xae,
  0x41, 0x22, 0x1c, 0xf6, 0x4f, 0xbe, 0x54, 0xe8, 0xea, 0xed, 0x9e, 0x1a,
  0x0f, 0x27, 0xdc, 0xdc, 0x6a, 0x00, 0x34, 0xca, 0xd3, 0x03, 0x86, 0x6f,
  0x36, 0xe1, 0x10, 0x43, 0xbc, 0x3e, 0x1e, 0x3e, 0xdf, 0xed, 0xb5, 0x0b,
  0xb1, 0x34, 0x26, 0xae, 0xe6, 0x6a, 0x23, 0x6f, 0x69, 0x53, 0xe3, 0x57,
  0x03, 0xb6, 0x07, 0x1d, 0xdc, 0x35, 0xee, 0xda, 0xf1, 0xd6, 0xa8, 0x0e,
  0xce, 0xfc, 0x20, 0xec, 0xbd, 0xfb, 0x38, 0xe1, 0x49, 0xce, 0xf4, 0x42,
  0xf8, 0x7e, 0x41, 0xdd, 0xd8, 0x17, 0x40, 0xd9, 0x6b, 0xb2, 0xbf, 0x26,
  0xbc, 0xf1, 0xec, 0x72, 0x00, 0xa3, 0x5e, 0x62, 0xfa, 0x50, 0x5a, 0xda,
  0xf4, 0xe6, 0xd4, 0xbf, 0x44, 0xc1, 0x53, 0x39, 0xaf, 0x7f, 0x62, 0x2b,
  0xc2, 0xa6, 0xcf, 0x25, 0x5f, 0xc0, 0x67, 0xaa, 0xbb, 0x1b, 0x90, 0x30,
  0xdb, 0x4c, 0xfd, 0x56, 0x81, 0xc6, 0x30, 0xf0, 0xf2, 0x5c, 0x41, 0x39,
  0x22, 0xbc, 0xbf, 0xd5, 0x41, 0x59, 0xbb, 0xc0, 0x11, 0x32, 0xd0, 0xdf,
  0x93, 0xc5, 0x32, 0xb1, 0x69, 0x07, 0xc6, 0xfd, 0xfe, 0x53, 0xd0, 0x45,
  0x29, 0xec, 0x04, 0xa2, 0x2f, 0x57, 0x39, 0xe7, 0xf9, 0xd8, 0xd1, 0x55,
  0xd0, 0x0c, 0x08, 0xcc, 0x38, 0x0c, 0x12, 0xba, 0xe9, 0xf8, 0xc1, 0xab,
  0x17, 0x21, 0xb3, 0x19, 0x1c, 0x29, 0xe7, 0x0f, 0x3f, 0xf2, 0x4b, 0xb0,
  0xf5, 0x06, 0xc7, 0xd2, 0xcb, 0xd1, 0x2c, 0x13, 0x04, 0x2d, 0xd6, 0xf1,
  0x1d, 0xfd, 0x06, 0xa3, 0xbd, 0x35, 0xc0, 0x81, 0x4b, 0x08, 0x0e, 0xd6,
  0x3a, 0x54, 0x3e, 0xd7, 0x25, 0x58, 0x12, 0xdd, 0xe2, 0xf6, 0x07, 0xc3,
  0xd3, 0x29, 0xca, 0x25, 0xe3, 0xf9, 0xa9, 0xfb, 0x4a, 0xfb, 0xba, 0x9f,
  0xbe, 0xc9, 0xc8, 0xcb, 0xf9, 0xeb, 0xf9, 0x2b, 0xfa, 0x2d, 0x23, 0x22,
  0x34, 0x30, 0x4a, 0xa0, 0x0f, 0x45, 0xec, 0xee, 0xda, 0xe5, 0x19, 0x40,
  0xc9, 0xe7, 0xac, 0x24, 0xbc, 0x92, 0x3a, 0xfa, 0x32, 0x36, 0xfe, 0x1e,
  0x11, 0xe1, 0xdf, 0xd8, 0xd4, 0xc5, 0xfa, 0xcc, 0x2f, 0x35, 0x33, 0xc7,
  0x04, 0xfa, 0x0b, 0xc6, 0x1a, 0xff, 0x00, 0x06, 0xf4, 0x27, 0x7f, 0xeb,
  0xd0, 0xe9, 0x12, 0xce, 0x5d, 0x39, 0xde, 0x13, 0x27, 0xbd, 0x2e, 0x01,
  0xb2, 0x06, 0x41, 0xce, 0x23, 0xc4, 0x2e, 0xbe, 0xb9, 0xd8, 0xfb, 0x1f,
  0xff, 0x14, 0x4a, 0x86, 0xf4, 0xff, 0x4d, 0x08, 0x3b, 0xb7, 0x39, 0xe1,
  0xc5, 0x28, 0x28, 0x32, 0xd6, 0x36, 0xa8, 0xf5, 0x1b, 0x8a, 0xd9, 0xa9,
  0x29, 0x66, 0x15, 0x2d, 0xb1, 0x3c, 0x12, 0x4c, 0xec, 0xba, 0x08, 0xc1,
  0x06, 0x69, 0x63, 0x2b, 0xe1, 0xc1, 0x3a, 0x14, 0x11, 0x48, 0xe9, 0x10,
  0x50, 0x11, 0xcb, 0x02, 0xd1, 0x8c, 0x19, 0xa6, 0xc0, 0xfe, 0xf9, 0x32,
  0xf3, 0x0f, 0x28, 0x2b, 0x39, 0xd7, 0xe5, 0xb3, 0x4b, 0x70, 0xf1, 0x6d,
  0xde, 0xe0, 0xff, 0xff, 0x04, 0x00, 0x00, 0x00, 0x80, 0x00, 0x00, 0x00,
  0xf8, 0xff, 0xff, 0xff, 0x8c, 0x01, 0x00, 0x00, 0x3a, 0x02, 0x00, 0x00,
  0x4f, 0x00, 0x00, 0x00, 0xa2, 0x01, 0x00, 0x00, 0x40, 0x01, 0x00, 0x00,
  0xa4, 0xff, 0xff, 0xff, 0x16, 0x00, 0x00, 0x00, 0x07, 0x01, 0x00, 0x00,
  0xbc, 0xff, 0xff, 0xff, 0x7b, 0x00, 0x00, 0x00, 0x09, 0x02, 0x00, 0x00,
  0xf8, 0xfe, 0xff, 0xff, 0x6b, 0x01, 0x00, 0x00, 0x70, 0x00, 0x00, 0x00,
  0xdd, 0xff, 0xff, 0xff, 0x39, 0xff, 0xff, 0xff, 0x4c, 0xff, 0xff, 0xff,
  0x09, 0xff, 0xff, 0xff, 0xe8, 0xfe, 0xff, 0xff, 0xa7, 0x00, 0x00, 0x00,
  0xe5, 0xff, 0xff, 0xff, 0x95, 0xfd, 0xff, 0xff, 0x06, 0x00, 0x00, 0x00,
  0xd4, 0xff, 0xff, 0xff, 0x9f, 0x00, 0x00, 0x00, 0xd1, 0xff, 0xff, 0xff,
  0xf9, 0xff, 0xff, 0xff, 0x02, 0xff, 0xff, 0xff, 0x1f, 0x00, 0x00, 0x00,
  0x5e, 0xfe, 0xff, 0xff, 0x5a, 0x00, 0x00, 0x00, 0x6a, 0xe1, 0xff, 0xff,
  0x04, 0x00, 0x00, 0x00, 0xc0, 0x1d, 0x00, 0x00, 0x09, 0xe9, 0xd2, 0xe1,
  0x0b, 0xe5, 0x03, 0xf4, 0xfe, 0x20, 0xef, 0xfd, 0xfd, 0xd7, 0x04, 0x38,
  0x2f, 0xef, 0x0e, 0xf4, 0xff, 0xf9, 0xfc, 0x06, 0x07, 0xf3, 0xef, 0x21,
  0xd1, 0xe7, 0xdf, 0xc1, 0xf1, 0xec, 0xde, 0xf1, 0xe7, 0xee, 0x01, 0xe1,
  0x15, 0x15, 0xf3, 0xf4, 0xff, 0xcc, 0xe4, 0x21, 0xfa, 0x19, 0x1c, 0x15,
  0xd4, 0x10, 0xf9, 0x07, 0xd3, 0x17, 0xee, 0x1e, 0xc7, 0xe4, 0xf3, 0xea,
  0x10, 0xd2, 0xdc, 0xeb, 0x01, 0xd5, 0x02, 0xec, 0xcd, 0xff, 0x08, 0xf5,
  0xf6, 0xf6, 0x0c, 0x2a, 0x1f, 0xfd, 0xde, 0x00, 0xeb, 0x07, 0xee, 0xff,
  0xd8, 0xe0, 0x06, 0x28, 0xd3, 0xe0, 0x04, 0xea, 0x0a, 0xb0, 0xf8, 0xf0,
  0xf3, 0x04, 0x1e, 0xf5, 0xea, 0x13, 0xf8, 0xfb, 0xd6, 0xd9, 0xfc, 0x18,
  0x33, 0x3f, 0xd8, 0x19, 0xe6, 0xf6, 0xd3, 0xf8, 0xe4, 0x27, 0xfa, 0x1d,
  0xbf, 0xf6, 0xda, 0xf9, 0x11, 0xe1, 0xc0, 0xd0, 0xdd, 0x11, 0x28, 0xf4,
  0x0c, 0xfe, 0x18, 0x14, 0xe9, 0xd1, 0x0e, 0x1c, 0x19, 0x30, 0xee, 0xf2,
  0xca, 0xfa, 0x05, 0xfc, 0xf5, 0x08, 0x11, 0xfc, 0xe6, 0x00, 0x0f, 0xc5,
  0xf8, 0x03, 0xd4, 0xdc, 0xe7, 0x02, 0x1d, 0xf8, 0xe4, 0x03, 0x07, 0xf9,
  0x05, 0xbc, 0x08, 0x2f, 0x0d, 0x29, 0x01, 0x05, 0xd9, 0x22, 0xe9, 0x05,
  0xf8, 0x18, 0x11, 0x0d, 0xd5, 0xf9, 0xe6, 0xde, 0x18, 0xf1, 0xe6, 0xcb,
  0xfb, 0x0d, 0x23, 0x12, 0x09, 0x05, 0x2a, 0x19, 0xe1, 0xb8, 0xe4, 0x27,
  0x29, 0x10, 0xe5, 0x0f, 0xc9, 0x0c, 0xe4, 0x36, 0xfb, 0x11, 0xfa, 0xf8,
  0x08, 0x25, 0xf2, 0x18, 0xf5, 0xd7, 0xfa, 0xf7, 0x1f, 0x15, 0x0d, 0x02,
  0x0e, 0xdd, 0x23, 0x12, 0xe3, 0xfa, 0x12, 0x1d, 0xf8, 0x1c, 0xe8, 0xe4,
  0xc7, 0xea, 0xec, 0x09, 0xe6, 0x10, 0xd0, 0x0d, 0xe7, 0x02, 0xed, 0xcf,
  0x20, 0xff, 0x00, 0xc1, 0xff, 0xfa, 0x15, 0x03, 0x05, 0x03, 0x16, 0xfe,
  0xeb, 0xc9, 0xed, 0x2a, 0x17, 0x26, 0x10, 0xea, 0xfb, 0x2a, 0xe6, 0xf1,
  0x00, 0x07, 0xf2, 0x11, 0x01, 0x09, 0xef, 0xfa, 0x00, 0xd2, 0x03, 0xe6,
  0x0d, 0xe7, 0x24, 0xf0, 0xe9, 0xe8, 0x01, 0x14, 0xf8, 0xe5, 0x01, 0x04,
  0x1c, 0xff, 0x02, 0xe8, 0xe3, 0x0d, 0xfe, 0x20, 0xff, 0x05, 0xdc, 0x06,
  0xf3, 0x1e, 0xc4, 0xfb, 0x16, 0xe1, 0xef, 0xec, 0x2a, 0xfe, 0x0b, 0x19,
  0xf0, 0x06, 0x0b, 0xff, 0xfd, 0xe6, 0x11, 0x14, 0x11, 0x2b, 0x01, 0xf2,
  0xe0, 0xf8, 0x02, 0x06, 0xed, 0x00, 0xe5, 0x24, 0xee, 0xfe, 0xde, 0xf3,
  0xf2, 0x19, 0xdf, 0xfb, 0x1b, 0xff, 0x15, 0x0c, 0x19, 0xf8, 0x18, 0x0b,
  0x11, 0xf5, 0x00, 0x06, 0x23, 0x28, 0x06, 0xf4, 0xe3, 0x28, 0x0e, 0x24,
  0xe3, 0x1e, 0xd7, 0xff, 0x25, 0xfd, 0xeb, 0xf1, 0x16, 0xf1, 0xf1, 0xf1,
  0x09, 0x28, 0x31, 0x2a, 0xfe, 0x20, 0x04, 0x02, 0x16, 0xe4, 0x18, 0x0c,
  0x10, 0xf7, 0x13, 0x11, 0xdc, 0x03, 0xfb, 0x07, 0x19, 0x26, 0x01, 0x18,
  0x13, 0x1c, 0xd4, 0x0e, 0x0a, 0xeb, 0xe8, 0xe0, 0x22, 0x24, 0xfe, 0x15,
  0xe2, 0xf8, 0x1b, 0xd5, 0xff, 0xce, 0x0e, 0x25, 0xfc, 0x0a, 0x07, 0xfc,
  0xaa, 0x21, 0x1d, 0x1f, 0xfb, 0x03, 0xcb, 0xe7, 0x07, 0xf3, 0xca, 0xe7,
  0xea, 0xf3, 0xd7, 0x0e, 0x19, 0x14, 0x14, 0x08, 0x00, 0x07, 0x23, 0xdd,
  0xf4, 0xea, 0xfd, 0x0b, 0xeb, 0x03, 0x07, 0xf5, 0xca, 0x20, 0xfa, 0x03,
  0x0d, 0x0c, 0xdb, 0x14, 0x04, 0x11, 0xee, 0x00, 0xf6, 0xfd, 0x01, 0xf7,
  0x19, 0xf3, 0xeb, 0x1a, 0xf5, 0xeb, 0x16, 0x00, 0xec, 0xeb, 0x02, 0x1d,
  0x1d, 0x22, 0x08, 0xfe, 0xd3, 0x16, 0xf4, 0x01, 0xff, 0x0a, 0xcb, 0x0f,
  0x0d, 0x03, 0xd9, 0xf6, 0xed, 0xea, 0xe1, 0x0f, 0x20, 0x06, 0xfa, 0x11,
  0xf7, 0xfc, 0x06, 0xf8, 0xf2, 0xf8, 0x27, 0x09, 0xf8, 0x0e, 0x1a, 0xfb,
  0xe3, 0x2f, 0xfb, 0x07, 0x19, 0x08, 0xd3, 0x07, 0x0a, 0xf5, 0xbf, 0xf8,
  0xe4, 0x0f, 0xde, 0xf6, 0x05, 0x05, 0x0d, 0xfe, 0x22, 0xed, 0xfd, 0xe9,
  0x17, 0x09, 0x0e, 0x0e, 0x08, 0x12, 0x32, 0x09, 0xba, 0x11, 0xf4, 0xf0,
  0x04, 0x1f, 0xc2, 0x0c, 0x11, 0x00, 0xd0, 0xe9, 0xf2, 0xec, 0xf3, 0xfa,
  0x1b, 0x1f, 0x1c, 0x00, 0x0c, 0xf2, 0x0c, 0x1c, 0xea, 0x04, 0xf8, 0x19,
  0x08, 0x1a, 0x00, 0xff, 0xda, 0x20, 0x05, 0x0d, 0x13, 0x34, 0xea, 0xf8,
  0xf7, 0xed, 0xce, 0x0c, 0x06, 0xff, 0xf7, 0xf4, 0xf5, 0x11, 0x13, 0xf8,
  0xf4, 0xeb, 0xf8, 0xe9, 0xea, 0xf7, 0xf5, 0x1c, 0x00, 0x13, 0x14, 0x00,
  0xde, 0x15, 0x20, 0x18, 0x17, 0x1b, 0xde, 0xe2, 0x0d, 0x0b, 0xbf, 0xfd,
  0xf7, 0xfb, 0x08, 0xe5, 0x03, 0x1a, 0xef, 0x2a, 0xed, 0xf7, 0x18, 0x13,
  0x27, 0xd6, 0x06, 0x1c, 0xe7, 0x10, 0x10, 0xeb, 0xb9, 0x0a, 0x1d, 0x30,
  0x06, 0x32, 0x0e, 0xe8, 0xef, 0x03, 0xf2, 0xea, 0x15, 0x14, 0xe1, 0xef,
  0x26, 0xf5, 0x0d, 0x06, 0x15, 0x01, 0xe8, 0x1e, 0x0b, 0xd0, 0xe3, 0x20,
  0xea, 0x2f, 0xfc, 0xe7, 0xcb, 0x14, 0x08, 0x1d, 0x06, 0x34, 0xcf, 0xf0,
  0x17, 0x1d, 0xe8, 0xf2, 0xf8, 0xf2, 0xd8, 0xfd, 0x21, 0xfc, 0x04, 0x05,
  0x25, 0x00, 0xf4, 0x02, 0x05, 0xd5, 0x0a, 0x1e, 0xe5, 0x2a, 0x0a, 0xf2,
  0xdd, 0x23, 0xf2, 0xf4, 0x26, 0x0a, 0xee, 0xbf, 0x01, 0xf3, 0xba, 0x06,
  0x07, 0xe7, 0xf9, 0x04, 0x0e, 0x10, 0x03, 0x11, 0x05, 0xcc, 0x21, 0xe7,
  0x0b, 0xdb, 0xe4, 0x2c, 0xde, 0x0d, 0x22, 0x07, 0xb6, 0xf8, 0x14, 0x0a,
  0x03, 0x17, 0xb5, 0xdb, 0xf2, 0x10, 0xd9, 0xf2, 0xf5, 0xf5, 0xce, 0x00,
  0x16, 0xf9, 0xf7, 0x1d, 0x1b, 0xff, 0x16, 0xe9, 0x12, 0xb4, 0xef, 0x28,
  0xe5, 0x2b, 0x24, 0xf9, 0xa1, 0x19, 0x22, 0x02, 0x08, 0x04, 0xd4, 0xb3,
  0x14, 0xf8, 0xd8, 0x12, 0xf5, 0xdf, 0xbf, 0x17, 0xf7, 0x07, 0x17, 0x00,
  0xfb, 0xc1, 0xf9, 0xee, 0x15, 0xba, 0x0b, 0xfc, 0xe1, 0x1e, 0x27, 0x09,
  0xc5, 0xff, 0xfd, 0xed, 0x18, 0xf7, 0xd8, 0xdc, 0x29, 0xf4, 0xc5, 0x06,
  0x1e, 0xd4, 0xe9, 0xe7, 0x25, 0xe9, 0x0e, 0xf2, 0x27, 0x03, 0x1e, 0x0e,
  0xf5, 0x11, 0x20, 0x1b, 0xf7, 0x15, 0x2f, 0xea, 0xbd, 0xed, 0x0a, 0xf2,
  0xdb, 0x18, 0xe3, 0xe0, 0x0d, 0x09, 0xf6, 0xec, 0x0f, 0xd4, 0x02, 0xdb,
  0x2d, 0x11, 0x04, 0x0b, 0x0c, 0x1c, 0xea, 0x21, 0x08, 0x0d, 0x11, 0x0e,
  0xed, 0x13, 0x1d, 0xd3, 0xd3, 0xfe, 0x25, 0xe3, 0x16, 0x15, 0xfc, 0xee,
  0x09, 0x1f, 0xeb, 0xbb, 0x1d, 0xe9, 0xff, 0xe2, 0x23, 0x0a, 0xf2, 0x18,
  0x19, 0x06, 0x10, 0x15, 0x0d, 0xe5, 0x03, 0x17, 0xf5, 0x20, 0x34, 0xc6,
  0xc6, 0x12, 0x00, 0x10, 0x2e, 0x03, 0xf7, 0xf2, 0x13, 0x01, 0xcf, 0x03,
  0xfd, 0xc1, 0xdf, 0xd0, 0x18, 0xfd, 0xeb, 0x02, 0x24, 0x0a, 0x12, 0xee,
  0x1b, 0xf9, 0xf5, 0x15, 0xc7, 0x26, 0x19, 0xea, 0xf4, 0xf0, 0x1a, 0x07,
  0x22, 0x22, 0x0f, 0xdf, 0x05, 0xfc, 0xbc, 0xf9, 0x15, 0xbb, 0xd6, 0xf3,
  0x02, 0x00, 0xe0, 0x30, 0x07, 0xd7, 0x1f, 0xe8, 0xf1, 0xd8, 0x18, 0x04,
  0xd7, 0xfe, 0x22, 0xe4, 0xdb, 0x1a, 0x2b, 0x07, 0x22, 0x0d, 0xc8, 0xe8,
  0x04, 0x11, 0xf1, 0xd4, 0xec, 0xd7, 0xf3, 0xdb, 0xf9, 0xfc, 0xed, 0x35,
  0x04, 0x1e, 0x32, 0xee, 0xeb, 0xd9, 0x16, 0x0f, 0xe6, 0x1f, 0x37, 0xe3,
  0xe7, 0x2b, 0x07, 0x15, 0x1b, 0x36, 0x06, 0xef, 0x15, 0x1e, 0xe6, 0xf2,
  0xfa, 0xdc, 0xda, 0xac, 0x0b, 0x07, 0xf6, 0x11, 0xff, 0x06, 0xea, 0xf4,
  0x24, 0xcf, 0xff, 0xe4, 0xe7, 0x04, 0x43, 0xe3, 0xda, 0x10, 0xf2, 0x13,
  0xff, 0x27, 0xe8, 0xeb, 0xef, 0xfa, 0xdd, 0xd8, 0xf0, 0xc4, 0xe6, 0xd5,
  0xff, 0xd9, 0xe9, 0x1d, 0xf4, 0xbb, 0xe5, 0xe3, 0xfb, 0xb2, 0x16, 0x0f,
  0xed, 0xda, 0x1e, 0xf0, 0xb1, 0x06, 0x14, 0xe0, 0x0f, 0xfb, 0x07, 0xdd,
  0xfb, 0xe5, 0xd5, 0xd5, 0xf9, 0xd5, 0xd8, 0x42, 0xf3, 0xb6, 0x23, 0xd2,
  0xd7, 0xf5, 0xe3, 0xd6, 0x1b, 0xf7, 0xe9, 0x22, 0x02, 0xf5, 0xf5, 0xf9,
  0xe3, 0xce, 0x15, 0x0a, 0x07, 0xdd, 0xda, 0x08, 0xe3, 0xc3, 0xd8, 0x1a,
  0x02, 0xef, 0x09, 0x0d, 0x13, 0xd5, 0x24, 0xc1, 0xe6, 0xd9, 0xf5, 0xd3,
  0x1d, 0xf4, 0xe8, 0x26, 0xce, 0xd7, 0xfe, 0x0c, 0xc9, 0xe6, 0x20, 0xf1,
  0xff, 0x20, 0xde, 0xff, 0xd3, 0xf3, 0xf8, 0xf4, 0xe9, 0xf2, 0xfb, 0x32,
  0xf5, 0xc0, 0x17, 0xbd, 0xf2, 0x06, 0xec, 0xe8, 0x0a, 0xeb, 0x12, 0x1f,
  0x04, 0x11, 0x19, 0xf6, 0xee, 0x10, 0x19, 0xe9, 0xf2, 0x08, 0xda, 0xf9,
  0xf2, 0xee, 0xf4, 0xed, 0xf9, 0xce, 0x1e, 0x20, 0x02, 0xd9, 0x0a, 0xa7,
  0xec, 0x16, 0xee, 0xa2, 0x01, 0xfb, 0xf2, 0x1e, 0x06, 0xf2, 0xf9, 0x08,
  0xfb, 0x00, 0xea, 0xe8, 0xf0, 0x0f, 0xfc, 0x0c, 0x08, 0x01, 0xe4, 0x20,
  0xdd, 0xc4, 0xe4, 0x24, 0x11, 0xc4, 0x08, 0xf3, 0xd1, 0xd7, 0xfe, 0xe1,
  0x16, 0xe1, 0xfc, 0x0b, 0xf7, 0x04, 0x14, 0xfe, 0xfe, 0xf0, 0x03, 0xed,
  0x03, 0x09, 0xf2, 0x01, 0x11, 0xe3, 0x06, 0x14, 0xed, 0xd2, 0x1d, 0x0b,
  0x12, 0xc8, 0x12, 0xc9, 0xcc, 0x26, 0x11, 0xd5, 0x32, 0xf7, 0x13, 0x02,
  0xed, 0xff, 0x06, 0xe5, 0xff, 0x0f, 0x14, 0xf8, 0xbf, 0xf5, 0x02, 0x03,
  0xf0, 0xef, 0xe9, 0x21, 0x24, 0x07, 0x02, 0x19, 0x10, 0xeb, 0x0f, 0x0c,
  0xcf, 0x1e, 0xeb, 0xd4, 0x00, 0xf6, 0x00, 0xfb, 0x0e, 0xfe, 0x0f, 0xe7,
  0x13, 0xfc, 0x17, 0x1e, 0xe0, 0x10, 0x0a, 0xe9, 0x01, 0xe5, 0x07, 0x04,
  0x05, 0xdf, 0x17, 0x10, 0xfc, 0x01, 0x0b, 0x18, 0xcf, 0x08, 0x1f, 0xe4,
  0xf9, 0xff, 0x05, 0x23, 0x18, 0x02, 0x19, 0xe4, 0xe5, 0xe6, 0x13, 0x04,
  0xd5, 0x14, 0xed, 0xf0, 0x13, 0x27, 0x06, 0x0d, 0x08, 0xe6, 0xf6, 0x21,
  0xf3, 0xe3, 0x0e, 0xfc, 0xf0, 0xee, 0xea, 0xdb, 0x25, 0x07, 0x03, 0xfd,
  0xeb, 0xd2, 0x01, 0x1a, 0xf9, 0x07, 0xe3, 0x02, 0xe6, 0xf3, 0xff, 0xfb,
  0xe8, 0x16, 0x12, 0x31, 0x0b, 0xf1, 0x14, 0x09, 0x01, 0xe9, 0x23, 0xee,
  0xbd, 0x33, 0x09, 0x0a, 0x06, 0xe7, 0xfc, 0x01, 0x03, 0xfa, 0xf1, 0xf4,
  0xe0, 0xca, 0xff, 0x13, 0x03, 0xfc, 0xef, 0x00, 0x20, 0x06, 0xf0, 0x21,
  0x22, 0x0b, 0x00, 0x1a, 0xf4, 0xd4, 0xf6, 0xfa, 0xf6, 0x1f, 0xff, 0xf8,
  0x0d, 0x06, 0x08, 0x0a, 0x0b, 0xdb, 0x00, 0xee, 0xfb, 0xfa, 0x02, 0xf6,
  0x21, 0xe3, 0xfc, 0xf3, 0xfe, 0x15, 0xf1, 0xe7, 0xdb, 0xdd, 0xf2, 0x17,
  0x13, 0x09, 0xe2, 0x12, 0xf0, 0x1e, 0xe7, 0x03, 0x1c, 0x0c, 0x20, 0x01,
  0x07, 0xf1, 0xef, 0xf3, 0xd7, 0xec, 0xf1, 0xe6, 0xf1, 0x06, 0x0c, 0x08,
  0x05, 0x00, 0xed, 0xf0, 0x0f, 0xef, 0xdf, 0xee, 0x11, 0xda, 0xf7, 0xfb,
  0xd4, 0x2a, 0xec, 0xce, 0x33, 0x03, 0x0d, 0x1a, 0xed, 0xd7, 0xde, 0xe8,
  0xf1, 0xc1, 0x0d, 0xed, 0x2e, 0xf1, 0xf7, 0x04, 0xfe, 0x17, 0x24, 0x24,
  0x0a, 0xee, 0xf8, 0x00, 0x04, 0x05, 0xe5, 0x04, 0xe3, 0x0d, 0x0d, 0xe9,
  0x41, 0xf6, 0xfa, 0x1f, 0xed, 0xfc, 0xe5, 0xfe, 0xd7, 0xd6, 0xf0, 0x0b,
  0xe6, 0xfa, 0x34, 0xeb, 0x24, 0xfa, 0x10, 0x22, 0x14, 0xfa, 0x06, 0xfa,
  0x17, 0xfe, 0x0c, 0x1e, 0xf0, 0x12, 0x05, 0xeb, 0x33, 0xf2, 0x27, 0x16,
  0xf3, 0xf0, 0xf4, 0xfe, 0x01, 0xd0, 0xf3, 0xf8, 0x04, 0xfb, 0x31, 0xf6,
  0xfd, 0x19, 0x16, 0x2f, 0x21, 0xf0, 0x14, 0xf0, 0x07, 0xf2, 0x0b, 0x1b,
  0xec, 0x25, 0x05, 0x0b, 0x2c, 0xf7, 0xf2, 0x2b, 0x0b, 0xee, 0xe0, 0x01,
  0xf5, 0xd8, 0xe3, 0xfb, 0x02, 0x07, 0x0e, 0x00, 0x14, 0x09, 0x22, 0x33,
  0xfc, 0xd4, 0x02, 0x05, 0xec, 0xe4, 0x15, 0xff, 0xc0, 0x28, 0x04, 0xf4,
  0x27, 0xe5, 0x11, 0x1e, 0xf7, 0xdb, 0xcd, 0xf0, 0x08, 0x06, 0xf4, 0xff,
  0x03, 0xf8, 0x0f, 0xff, 0x1b, 0x0e, 0x10, 0x26, 0x00, 0xee, 0x07, 0xf5,
  0xe7, 0xec, 0xf6, 0x07, 0xce, 0x34, 0xe6, 0x0e, 0x22, 0xd2, 0x0b, 0x30,
  0xe5, 0xe0, 0x0a, 0x14, 0xde, 0xee, 0xfd, 0x0b, 0xf3, 0x05, 0x32, 0x19,
  0x0c, 0xea, 0x09, 0x29, 0x01, 0xd6, 0xee, 0xea, 0x0e, 0xf4, 0xe9, 0x14,
  0xcd, 0x3f, 0x00, 0x14, 0x15, 0xe7, 0xeb, 0x24, 0xe0, 0x18, 0xdc, 0xfe,
  0xe2, 0xd9, 0xf0, 0x11, 0x09, 0x10, 0x28, 0xec, 0x00, 0xe2, 0x2d, 0x33,
  0x10, 0xec, 0xf9, 0xf7, 0x12, 0x0a, 0x0f, 0x0d, 0xad, 0x21, 0xe5, 0x00,
  0x03, 0xe4, 0xc4, 0x1e, 0xff, 0x00, 0xdb, 0x04, 0x07, 0xdd, 0xef, 0x19,
  0xe1, 0xeb, 0x15, 0xf0, 0xf1, 0x00, 0x24, 0x37, 0x21, 0xea, 0xea, 0xe2,
  0xee, 0xeb, 0xe7, 0xfa, 0xb4, 0x0a, 0xf6, 0x04, 0x1d, 0xe1, 0x03, 0x0a,
  0x09, 0x16, 0xd7, 0xed, 0xea, 0x09, 0xef, 0x15, 0x17, 0xfc, 0x2f, 0xe4,
  0xf2, 0x2b, 0x36, 0xfe, 0x02, 0xd4, 0xcc, 0xf9, 0xff, 0xf4, 0x08, 0xe7,
  0xd9, 0x09, 0xef, 0xea, 0xf0, 0xef, 0xfa, 0x16, 0x0d, 0xdc, 0xe9, 0x18,
  0xd5, 0xfa, 0x00, 0xff, 0x09, 0xed, 0x22, 0x07, 0xf9, 0x20, 0x1e, 0x1d,
  0xe6, 0x03, 0xff, 0x19, 0x00, 0xf2, 0x10, 0xfb, 0xb3, 0x27, 0x01, 0xf7,
  0x02, 0x05, 0x11, 0x0a, 0x35, 0xff, 0xc3, 0x0f, 0xea, 0xf6, 0xf3, 0x2a,
  0xdf, 0xf0, 0x16, 0xfc, 0x12, 0xee, 0x3a, 0x14, 0x22, 0xec, 0xd8, 0x1d,
  0xf8, 0xeb, 0x00, 0xda, 0xd8, 0x07, 0xfb, 0xdf, 0x29, 0xf3, 0xe2, 0x20,
  0x23, 0xf1, 0xd3, 0x2e, 0x23, 0x16, 0xed, 0x0c, 0x02, 0xee, 0x3a, 0xfb,
  0x10, 0xea, 0x1b, 0x23, 0x21, 0xfa, 0xe7, 0xf0, 0x0e, 0xfb, 0x18, 0xee,
  0xca, 0x51, 0xda, 0xe2, 0x24, 0xfc, 0xff, 0x1d, 0x04, 0x16, 0xce, 0x10,
  0xf6, 0x00, 0xdd, 0x23, 0xed, 0xfa, 0x27, 0x07, 0xee, 0x0f, 0x35, 0x31,
  0x18, 0xfb, 0xdb, 0x09, 0x08, 0x15, 0x0c, 0x0e, 0xc4, 0x0d, 0xf1, 0xd7,
  0x26, 0xe3, 0x07, 0x1b, 0x08, 0xfd, 0xc3, 0x29, 0xdf, 0x00, 0xdf, 0x20,
  0x1a, 0x05, 0x25, 0x02, 0x10, 0xe4, 0x18, 0x29, 0x1b, 0xf4, 0xea, 0x0e,
  0xf3, 0xe0, 0xf6, 0xe4, 0xce, 0x0f, 0x05, 0xd9, 0xf6, 0xe7, 0x0e, 0x3b,
  0x28, 0xf6, 0xd8, 0x1b, 0xe8, 0x0d, 0x05, 0x2d, 0xff, 0x05, 0x08, 0xde,
  0x01, 0xe3, 0x42, 0x38, 0xf7, 0xe8, 0xff, 0x10, 0x0a, 0xf0, 0x1b, 0xd6,
  0xad, 0x0c, 0xe0, 0xd7, 0x0a, 0xef, 0xd8, 0x11, 0x15, 0x06, 0xf2, 0x0f,
  0xce, 0xd3, 0x07, 0x10, 0xca, 0xeb, 0x12, 0x07, 0xda, 0xf2, 0x14, 0x10,
  0x12, 0xe1, 0xd3, 0x31, 0x01, 0xcf, 0x1d, 0xc1, 0xa0, 0x3f, 0xed, 0xe5,
  0x26, 0xb9, 0xe8, 0x32, 0x08, 0x21, 0xe8, 0x08, 0xdd, 0x04, 0x11, 0x0b,
  0xcf, 0xe0, 0x11, 0x11, 0xf5, 0xce, 0x2b, 0x13, 0x0c, 0xe8, 0xe1, 0x02,
  0xf9, 0xcf, 0x0f, 0xdc, 0xae, 0x35, 0xf5, 0xf9, 0x26, 0xb5, 0xee, 0x16,
  0x2f, 0x15, 0xcc, 0x08, 0xf4, 0xf9, 0xda, 0x2c, 0xdf, 0xf0, 0xe4, 0x00,
  0xe3, 0xea, 0x2c, 0x14, 0xf2, 0x0a, 0xbc, 0x26, 0x01, 0xc7, 0x18, 0xe8,
  0xcc, 0x07, 0xf1, 0xf0, 0x1e, 0xeb, 0xe9, 0x10, 0xfe, 0x02, 0xf3, 0x3a,
  0xd5, 0xe5, 0xfc, 0x12, 0xf3, 0xec, 0x15, 0x06, 0xd9, 0xe0, 0x4a, 0x0f,
  0x14, 0xe7, 0xd8, 0x26, 0xf7, 0xbf, 0x03, 0xef, 0xcc, 0x28, 0xed, 0xe5,
  0x01, 0xe0, 0xd5, 0x11, 0xf1, 0xe4, 0xf7, 0x1b, 0xc0, 0xd2, 0xfd, 0x04,
  0xf4, 0xee, 0x19, 0xe5, 0xec, 0xe3, 0x1d, 0x04, 0x0e, 0xe3, 0xfa, 0x21,
  0xfa, 0xdc, 0x04, 0xb8, 0xb9, 0x1c, 0x01, 0x05, 0x35, 0xeb, 0xf9, 0x10,
  0x21, 0x10, 0xcf, 0x10, 0xe4, 0xeb, 0xd0, 0x1a, 0xdf, 0x0a, 0xfb, 0xfd,
  0xfd, 0xc2, 0x17, 0x2f, 0x19, 0xea, 0xd0, 0x09, 0xfb, 0xe1, 0x2b, 0xd7,
  0xaf, 0xf3, 0xe6, 0xf6, 0x0e, 0xe5, 0xd4, 0x35, 0x03, 0x01, 0xc9, 0x16,
  0x12, 0xf5, 0xef, 0x0c, 0x0e, 0x0a, 0x09, 0xb8, 0xd2, 0xf8, 0x25, 0x21,
  0xb9, 0x0b, 0x21, 0x17, 0xe6, 0xef, 0xec, 0xf2, 0x06, 0xf5, 0x24, 0xdb,
  0xe6, 0xd8, 0xf1, 0x04, 0x20, 0x1b, 0x0d, 0x0e, 0x1e, 0xfa, 0xf7, 0xfc,
  0x0a, 0xf2, 0xd1, 0x09, 0xdf, 0xfa, 0xfc, 0x1b, 0xda, 0xf1, 0xdc, 0xf8,
  0xfe, 0xdd, 0xe2, 0x09, 0xeb, 0xee, 0x0d, 0xd0, 0xe7, 0xf7, 0xff, 0x0f,
  0x1e, 0x31, 0xfe, 0x2a, 0xfa, 0x05, 0x19, 0x17, 0x05, 0xfe, 0xce, 0xfc,
  0x1d, 0x2b, 0xfc, 0x1a, 0xdc, 0x04, 0xec, 0x1e, 0xed, 0xf7, 0x01, 0x04,
  0xf3, 0xf4, 0x1e, 0xc2, 0x1e, 0xe9, 0xcc, 0x24, 0xfd, 0x09, 0xe6, 0x19,
  0x05, 0xea, 0x22, 0xe7, 0x20, 0xfe, 0xe8, 0x14, 0x0c, 0x1c, 0xe2, 0x26,
  0xe4, 0x15, 0xf5, 0xfb, 0x06, 0xfa, 0xe0, 0xe8, 0xfe, 0x1b, 0x1a, 0xdd,
  0x00, 0xf0, 0xda, 0x19, 0x10, 0xf4, 0xf1, 0xf9, 0x23, 0xf3, 0x08, 0xfe,
  0xef, 0xee, 0xb8, 0xea, 0x07, 0x11, 0x06, 0x08, 0xc4, 0x06, 0xdc, 0x1c,
  0xf6, 0xe6, 0xd3, 0xf9, 0xf2, 0xed, 0x01, 0xeb, 0xea, 0xd8, 0xd1, 0xf8,
  0x03, 0x19, 0xbe, 0x1b, 0x14, 0xe5, 0x11, 0xe1, 0xe4, 0x00, 0xb0, 0xfd,
  0x10, 0x0b, 0x0b, 0x19, 0xc8, 0xfb, 0x0a, 0x0d, 0xd3, 0xe6, 0xfb, 0x01,
  0xef, 0xe5, 0x13, 0xf7, 0xe6, 0xc3, 0xf9, 0x0c, 0x18, 0x30, 0xbe, 0x15,
  0x19, 0x0a, 0x07, 0xe4, 0xfb, 0x01, 0xbb, 0xf4, 0xf7, 0x14, 0xec, 0x08,
  0xda, 0xe9, 0xd3, 0xe9, 0x02, 0xe2, 0xe0, 0x06, 0x1c, 0xe9, 0x16, 0x01,
  0xeb, 0xe8, 0xd6, 0x06, 0x2c, 0x20, 0xf7, 0x30, 0xfa, 0x10, 0x1f, 0x0e,
  0x03, 0x17, 0xce, 0xe6, 0xfe, 0x07, 0xf2, 0xf4, 0xce, 0xfc, 0xea, 0x21,
  0xe3, 0x08, 0xda, 0xd6, 0xf3, 0xf1, 0x1c, 0xe0, 0x0d, 0xd3, 0xec, 0xfb,
  0x08, 0xfb, 0xdc, 0xf4, 0x09, 0xea, 0xf3, 0x0e, 0x0e, 0xf6, 0xed, 0x0f,
  0xef, 0xf7, 0x17, 0xed, 0xc0, 0xf5, 0xdc, 0x18, 0xd1, 0x05, 0x01, 0x0b,
  0x22, 0x10, 0x2d, 0xd3, 0x06, 0xfb, 0xee, 0x18, 0x14, 0x00, 0xf4, 0x27,
  0xf9, 0xe1, 0x20, 0xec, 0xe9, 0xeb, 0xd3, 0x25, 0xc9, 0x1d, 0x26, 0x0c,
  0xcc, 0xd7, 0xe5, 0xf8, 0xe1, 0xfc, 0xee, 0xf6, 0x08, 0xfe, 0x13, 0xe3,
  0x10, 0xcc, 0xe7, 0x19, 0x16, 0x28, 0xd2, 0xfa, 0xf9, 0xee, 0x02, 0xfe,
  0x24, 0x1f, 0xbb, 0x14, 0xe9, 0xeb, 0x11, 0xeb, 0xee, 0xd2, 0x16, 0x22,
  0xf3, 0xe5, 0x01, 0xd2, 0x19, 0xe9, 0x0f, 0xe3, 0xd1, 0xf7, 0x14, 0x15,
  0x0b, 0x22, 0xe4, 0x18, 0x00, 0xf9, 0x11, 0x08, 0x17, 0x10, 0xbd, 0x10,
  0x05, 0xf3, 0x05, 0xd6, 0xc3, 0xf9, 0x0a, 0x23, 0xfc, 0xf7, 0xdb, 0xe0,
  0xe3, 0x14, 0x0d, 0x04, 0xdf, 0xdb, 0xd5, 0xf6, 0x2b, 0x35, 0xf9, 0x29,
  0xec, 0x08, 0x20, 0x0e, 0x16, 0x1a, 0xd8, 0x13, 0x03, 0x0b, 0xf1, 0xdf,
  0x06, 0x05, 0xe2, 0x11, 0xcf, 0x0e, 0xfb, 0xe9, 0xf4, 0x0c, 0x17, 0xe8,
  0x00, 0xd6, 0xea, 0x2d, 0x2a, 0x23, 0x00, 0x00, 0x15, 0x12, 0xef, 0xf3,
  0xf8, 0x0f, 0xcb, 0x27, 0x22, 0xfe, 0x09, 0xec, 0xdb, 0xe9, 0x04, 0xfb,
  0xef, 0xe5, 0x0c, 0x0b, 0x01, 0xf5, 0x28, 0xbe, 0x01, 0xed, 0xda, 0x12,
  0x07, 0x21, 0xca, 0xfd, 0x18, 0xf7, 0x09, 0x09, 0x1d, 0x00, 0xf3, 0x10,
  0xf5, 0x1b, 0xe7, 0x18, 0x00, 0x0d, 0xfc, 0x02, 0xfd, 0x1e, 0x0c, 0xfc,
  0xe9, 0x19, 0x20, 0xe9, 0x0d, 0xd9, 0xe5, 0x02, 0x02, 0x28, 0xe5, 0x1d,
  0x20, 0xf6, 0xf2, 0xf6, 0x03, 0x12, 0xe0, 0x28, 0xf3, 0x06, 0xfd, 0x21,
  0xc6, 0xe2, 0xed, 0x1a, 0xd9, 0x02, 0xe9, 0xea, 0x0b, 0x03, 0x1d, 0xa0,
  0x1c, 0xc5, 0xc5, 0x1e, 0x25, 0x03, 0xbd, 0x07, 0x02, 0xf3, 0x25, 0x03,
  0xdf, 0x07, 0xb9, 0x15, 0x02, 0x01, 0xe3, 0x17, 0xe2, 0xee, 0xf2, 0x07,
  0xfe, 0xf6, 0xc6, 0xe0, 0xea, 0x0b, 0x16, 0xbb, 0x07, 0xb6, 0xd4, 0xfe,
  0x1c, 0x15, 0xf4, 0x03, 0xfa, 0x18, 0x12, 0x13, 0x19, 0x13, 0xb7, 0x00,
  0xe9, 0x17, 0x10, 0x14, 0xe9, 0xfa, 0x18, 0x18, 0xca, 0xe9, 0xfb, 0xf9,
  0x10, 0xef, 0xfc, 0xe0, 0xde, 0xed, 0xc1, 0x0f, 0x0c, 0xfe, 0xf3, 0xf9,
  0xfd, 0x18, 0xf3, 0xf6, 0xe0, 0x0e, 0xe4, 0x11, 0xee, 0xf3, 0x0a, 0xf3,
  0xe9, 0x07, 0x01, 0x17, 0xda, 0xe3, 0xfc, 0xe6, 0xfe, 0xeb, 0x28, 0xce,
  0x17, 0xc0, 0xc5, 0xf5, 0x02, 0x03, 0xd1, 0x13, 0x1c, 0x1a, 0xe9, 0x14,
  0xee, 0x07, 0xde, 0x0b, 0xd6, 0x16, 0x0e, 0x20, 0x04, 0x16, 0xed, 0x1d,
  0xeb, 0x0e, 0xd5, 0xc9, 0xfa, 0x18, 0x19, 0xe1, 0xea, 0xdc, 0xf7, 0x11,
  0x14, 0x22, 0xe6, 0x21, 0xef, 0xed, 0x1e, 0xfa, 0xdd, 0xfd, 0xc3, 0x18,
  0x01, 0x18, 0xe3, 0x0b, 0xde, 0x03, 0xfb, 0xf4, 0xc0, 0xf8, 0x16, 0x08,
  0xf3, 0x19, 0x1f, 0xcc, 0xec, 0xcc, 0xe2, 0x26, 0x00, 0x18, 0xd1, 0xf6,
  0xf8, 0xee, 0xfd, 0x29, 0xee, 0xfc, 0xca, 0xf7, 0xf0, 0xf3, 0x14, 0xf2,
  0xd2, 0x14, 0xdd, 0x06, 0xd4, 0xe8, 0xff, 0xde, 0x12, 0xf2, 0x0c, 0xb7,
  0xf4, 0xd5, 0xda, 0xfb, 0xec, 0x0f, 0xf7, 0x15, 0x1f, 0xfa, 0xe6, 0x21,
  0xda, 0x1a, 0xd6, 0xfd, 0xdd, 0x11, 0x0b, 0x21, 0xd2, 0xfd, 0xe4, 0x10,
  0xea, 0xe8, 0x06, 0x05, 0xf9, 0xf5, 0x26, 0xd9, 0xf0, 0xe9, 0xf4, 0x23,
  0x08, 0x20, 0xdf, 0xfa, 0x18, 0xf0, 0xe1, 0xf5, 0x11, 0xe9, 0xdf, 0x08,
  0xf3, 0xf4, 0x16, 0x1c, 0xe3, 0xf5, 0xf4, 0x04, 0xc8, 0x05, 0x03, 0x00,
  0x0d, 0x05, 0x05, 0xe5, 0x08, 0xef, 0xd5, 0x10, 0x1c, 0xfd, 0xbc, 0xf5,
  0x04, 0x00, 0xf7, 0xf5, 0x08, 0xf3, 0xcc, 0xf5, 0x00, 0x12, 0xfd, 0x12,
  0xc9, 0xe7, 0xf6, 0x01, 0xd3, 0xe5, 0xef, 0x13, 0x02, 0x09, 0x18, 0xd6,
  0xfb, 0xd7, 0xf5, 0x0b, 0x18, 0xfa, 0xe4, 0x0e, 0x13, 0xf2, 0xe2, 0x1d,
  0xef, 0x01, 0xdd, 0xff, 0x02, 0x05, 0x17, 0xf6, 0xe8, 0xe1, 0xee, 0x27,
  0x09, 0xf0, 0xf9, 0xdc, 0x06, 0xd9, 0xfa, 0xeb, 0x0e, 0xcf, 0xe0, 0x10,
  0x08, 0xf6, 0xdc, 0xed, 0x01, 0xf2, 0xef, 0x01, 0xf0, 0x09, 0xe5, 0xf1,
  0xe7, 0x23, 0x09, 0xfa, 0xf7, 0xef, 0xe9, 0x22, 0xdd, 0xe2, 0xf9, 0xf1,
  0xdb, 0x02, 0x16, 0xd2, 0xe1, 0xf4, 0xfb, 0x06, 0x10, 0x00, 0xe8, 0xf1,
  0x13, 0x20, 0x14, 0x04, 0xfe, 0xf7, 0xf4, 0xe4, 0xde, 0x21, 0xf7, 0xf5,
  0xd0, 0x0e, 0xe8, 0x08, 0xf1, 0x06, 0x20, 0xf1, 0xf5, 0xdd, 0x17, 0xb7,
  0x00, 0xfd, 0xe6, 0xf8, 0x05, 0x1a, 0xf8, 0x21, 0xe1, 0x17, 0x08, 0x07,
  0xee, 0x0e, 0xcc, 0x06, 0xc7, 0xf6, 0x22, 0xd7, 0xfb, 0xef, 0xe0, 0x0b,
  0xf0, 0x0c, 0x01, 0xfc, 0xfb, 0xe1, 0x1a, 0xc8, 0x13, 0x00, 0xe9, 0x05,
  0xe3, 0xfa, 0xfb, 0x27, 0xf1, 0x20, 0xfc, 0x0f, 0xe8, 0x08, 0xd1, 0xf4,
  0xd1, 0x0f, 0x11, 0x16, 0xf9, 0xe8, 0x03, 0x0e, 0xfd, 0x1d, 0x0c, 0xff,
  0xe2, 0xdb, 0x04, 0xc7, 0x23, 0xeb, 0xee, 0xef, 0x0a, 0x28, 0xd4, 0x03,
  0xe9, 0x09, 0xfd, 0x27, 0xe2, 0x0a, 0xe1, 0x05, 0xc0, 0xf2, 0x24, 0xfe,
  0x06, 0x1e, 0xf6, 0x1d, 0xf3, 0xfc, 0x13, 0xef, 0x19, 0xf5, 0x18, 0xd5,
  0xf8, 0xec, 0xee, 0xe6, 0xee, 0x1d, 0xe8, 0x00, 0xf6, 0xe3, 0xee, 0xf8,
  0xeb, 0x09, 0xf8, 0x12, 0xe3, 0xfb, 0xea, 0xf9, 0xe4, 0x27, 0xe6, 0xf5,
  0xdd, 0x13, 0xef, 0x05, 0xf8, 0xca, 0x09, 0xe5, 0xef, 0xfb, 0xf3, 0xfc,
  0xf0, 0x14, 0xeb, 0xe7, 0x0d, 0xff, 0xed, 0xf3, 0xe4, 0x22, 0xc3, 0x0d,
  0xcd, 0x10, 0xe7, 0xe0, 0xdc, 0x15, 0x00, 0x0e, 0xf0, 0xf7, 0xdb, 0xe6,
  0xff, 0xea, 0xe7, 0xb8, 0xec, 0xfd, 0x13, 0x07, 0xf5, 0x33, 0xdf, 0x10,
  0xf6, 0x0b, 0xf6, 0xff, 0xfa, 0x02, 0xc4, 0xf8, 0xf3, 0x14, 0xf4, 0xcd,
  0xd9, 0x00, 0x18, 0xf3, 0xd5, 0x1a, 0xd1, 0x14, 0xe0, 0xea, 0xfa, 0xd7,
  0xec, 0xec, 0xcc, 0xf0, 0x11, 0x19, 0xbd, 0x1d, 0xed, 0xfe, 0xf6, 0x14,
  0xdb, 0xf3, 0xde, 0x28, 0xdf, 0xec, 0xe6, 0xdc, 0xe9, 0xf3, 0x1c, 0xea,
  0xfd, 0xfd, 0xfa, 0xef, 0x03, 0x04, 0xe5, 0x13, 0x07, 0x0e, 0x01, 0xd5,
  0xea, 0x08, 0xe8, 0xaf, 0xf2, 0xe1, 0x21, 0xf5, 0xe7, 0xba, 0x2b, 0x16,
  0xf4, 0xf7, 0x11, 0xac, 0xf9, 0xeb, 0x08, 0xc8, 0xe5, 0x1f, 0xce, 0x27,
  0x00, 0xe4, 0xbe, 0xf1, 0xf7, 0x14, 0xe5, 0xbe, 0xed, 0x05, 0xf5, 0xbe,
  0xf1, 0xbf, 0xdb, 0x04, 0xff, 0xdf, 0xfa, 0x03, 0x0e, 0x07, 0xf3, 0xdb,
  0xd7, 0xd5, 0x35, 0xab, 0xe1, 0x09, 0xdc, 0x03, 0xf4, 0x09, 0xfc, 0xff,
  0xdc, 0x17, 0x0e, 0xf6, 0xda, 0xeb, 0x04, 0xbe, 0xf7, 0xe1, 0xfb, 0x0c,
  0x02, 0xe6, 0x06, 0x0e, 0xe8, 0xf2, 0xe5, 0xbe, 0xd0, 0xf8, 0x05, 0xc2,
  0x08, 0xfa, 0xf1, 0x36, 0x0d, 0xc3, 0xd7, 0x13, 0xd2, 0x14, 0x0d, 0xfe,
  0xdc, 0xd3, 0x09, 0xcb, 0x01, 0xe7, 0x15, 0x11, 0xfc, 0xf4, 0x3c, 0x34,
  0xf2, 0xe9, 0xdd, 0x12, 0xe3, 0x1d, 0x36, 0xe0, 0xee, 0x33, 0xf0, 0x1b,
  0x1e, 0x01, 0xef, 0x14, 0x18, 0x1c, 0xfd, 0xf7, 0xde, 0x1a, 0x19, 0xc9,
  0x1f, 0xe5, 0xf2, 0xfe, 0x1b, 0xd7, 0x0f, 0x0a, 0x18, 0xf7, 0x0b, 0x1f,
  0xde, 0x13, 0x0f, 0x10, 0x02, 0x06, 0x06, 0xf3, 0xfa, 0x02, 0xd3, 0x24,
  0x00, 0x05, 0x14, 0xf7, 0xde, 0xfd, 0x14, 0xd3, 0x14, 0xe9, 0x0f, 0xff,
  0x0b, 0xd3, 0x40, 0x1c, 0xed, 0xdd, 0x0a, 0x05, 0x07, 0x21, 0x00, 0xda,
  0xd9, 0x0a, 0xf3, 0x05, 0x0a, 0xcf, 0xbb, 0x25, 0xfe, 0x20, 0x20, 0xd7,
  0xd4, 0xde, 0xf6, 0xbf, 0x05, 0xf8, 0xfe, 0xe6, 0xf4, 0xe1, 0x33, 0x39,
  0x09, 0xe8, 0x07, 0x01, 0x0d, 0xea, 0x08, 0x0e, 0xfc, 0x12, 0xe0, 0x0d,
  0x2e, 0xc7, 0xd6, 0x31, 0x15, 0x35, 0x1d, 0xe5, 0xd2, 0x0c, 0xf9, 0xd5,
  0x09, 0xf9, 0x1b, 0x0e, 0x0a, 0xc0, 0x0c, 0xf7, 0x00, 0xd4, 0x25, 0xc7,
  0xee, 0xdc, 0x1e, 0xdc, 0xdc, 0x1e, 0xe0, 0x24, 0x34, 0xed, 0xeb, 0x15,
  0x0c, 0x23, 0xf6, 0xb6, 0xf1, 0xf7, 0x0d, 0xa8, 0xed, 0xe3, 0x13, 0x13,
  0xfa, 0xbc, 0x32, 0x3e, 0xf5, 0xcb, 0xe9, 0xd7, 0x08, 0x07, 0x2e, 0xf3,
  0xf2, 0x1d, 0xd7, 0x25, 0x01, 0xf2, 0xe3, 0x0a, 0x1b, 0x1f, 0x21, 0xec,
  0x03, 0xfb, 0xf9, 0xc4, 0x0c, 0xc1, 0xf3, 0x13, 0x19, 0xc5, 0xff, 0x17,
  0xf0, 0xf3, 0xf2, 0xec, 0xf1, 0x1c, 0x0a, 0xcd, 0x01, 0x29, 0xf7, 0xe5,
  0x16, 0xc1, 0xfc, 0xed, 0x1a, 0x23, 0x25, 0x06, 0xe4, 0xd7, 0x04, 0xcd,
  0xfa, 0x02, 0xed, 0x10, 0xfd, 0xfd, 0x1c, 0x2a, 0xf7, 0x27, 0xc1, 0xe3,
  0xe0, 0xed, 0xf7, 0xe2, 0xe8, 0x24, 0xfb, 0x1c, 0xf5, 0xc4, 0xe6, 0x17,
  0x10, 0x27, 0x0d, 0xd0, 0x13, 0xe1, 0xf0, 0xc7, 0xff, 0xd7, 0x08, 0xe3,
  0xe7, 0xce, 0x26, 0x16, 0xe2, 0xe6, 0xe1, 0xe1, 0x0e, 0xee, 0x19, 0xef,
  0xf7, 0x02, 0xec, 0xfd, 0x2b, 0xf2, 0xbd, 0x06, 0x06, 0x16, 0x14, 0xe8,
  0x0a, 0x26, 0x0b, 0xae, 0x02, 0xce, 0x11, 0xf3, 0xe4, 0xe0, 0x11, 0x26,
  0x13, 0x04, 0xdb, 0xdb, 0x0b, 0x00, 0x15, 0xf8, 0xdc, 0x0a, 0xdb, 0xf9,
  0xfe, 0xd5, 0xc7, 0x27, 0x28, 0x32, 0x1a, 0xf8, 0xe3, 0xf3, 0x12, 0xc6,
  0xfa, 0xe9, 0x12, 0xe5, 0xff, 0xe4, 0x0d, 0x23, 0xf2, 0xf2, 0xe1, 0xe3,
  0xe3, 0xff, 0xf5, 0x0e, 0x0d, 0xf3, 0xf8, 0x04, 0xff, 0xf9, 0xb0, 0xfd,
  0x1b, 0x12, 0x11, 0x00, 0xf9, 0x19, 0x1e, 0xd9, 0xfe, 0xeb, 0x08, 0xd8,
  0xe8, 0xbe, 0x22, 0x1d, 0x0b, 0xe4, 0xf9, 0xf9, 0xd7, 0x21, 0x0d, 0xef,
  0xe7, 0x19, 0x0b, 0xdd, 0x10, 0xef, 0x9d, 0x1a, 0x06, 0x19, 0x2f, 0xf0,
  0x05, 0xf4, 0x1e, 0xd1, 0x0f, 0xb8, 0x10, 0xdc, 0xf1, 0xdd, 0x28, 0x2c,
  0xf5, 0xe0, 0xf2, 0xdb, 0xdd, 0xfd, 0x29, 0xfd, 0xc5, 0xe3, 0x27, 0xec,
  0x0a, 0xc0, 0xae, 0x21, 0x07, 0x2d, 0x12, 0xce, 0xcf, 0xee, 0x24, 0xc7,
  0x04, 0xd9, 0x2e, 0xd2, 0xf9, 0xbb, 0x22, 0x34, 0x01, 0xdc, 0x0f, 0xd3,
  0xf6, 0x01, 0x04, 0x0b, 0xdf, 0x01, 0xf9, 0xe3, 0x26, 0xea, 0xb5, 0x23,
  0xee, 0x22, 0x21, 0xcb, 0xd6, 0x1d, 0x1c, 0xd6, 0xf5, 0xb8, 0x3a, 0xc8,
  0xfc, 0xd4, 0xf6, 0x2d, 0xfb, 0xf8, 0x0b, 0xe1, 0x04, 0xf5, 0x36, 0xdf,
  0xe8, 0xef, 0x17, 0x04, 0x12, 0xe6, 0xb9, 0x0b, 0x17, 0x15, 0x0c, 0xbe,
  0xf4, 0x1d, 0x08, 0xe2, 0x17, 0xdc, 0x38, 0xcf, 0x0e, 0xb8, 0x20, 0x14,
  0x16, 0x03, 0x19, 0xdb, 0xda, 0x19, 0x26, 0xf9, 0xe2, 0xf9, 0x12, 0x2b,
  0x0f, 0xdd, 0xca, 0x13, 0xf3, 0x2f, 0x0f, 0xfd, 0x16, 0x24, 0xfa, 0xd8,
  0xe1, 0xcb, 0x3c, 0xc9, 0x06, 0x07, 0x07, 0x20, 0x1a, 0xd0, 0x16, 0xd2,
  0x08, 0x12, 0x1a, 0xf7, 0xdf, 0x02, 0xf3, 0x11, 0xf8, 0xe5, 0xcc, 0xf9,
  0xf0, 0x14, 0x27, 0x06, 0x00, 0x01, 0x15, 0xd3, 0xec, 0xea, 0x3c, 0xf5,
  0x10, 0x05, 0x1b, 0x12, 0xe7, 0xdf, 0xeb, 0x0b, 0x09, 0x03, 0x2d, 0x0a,
  0xe9, 0xe5, 0xfe, 0x14, 0x22, 0x19, 0xe0, 0x10, 0x18, 0x28, 0x2f, 0xd3,
  0xff, 0x1d, 0xf3, 0xf8, 0x0b, 0xf0, 0x34, 0xd0, 0xfe, 0xee, 0x17, 0x34,
  0xee, 0xf0, 0x0c, 0x18, 0x19, 0xfb, 0x0a, 0x16, 0xed, 0xe1, 0x11, 0x0b,
  0x2a, 0x01, 0xc3, 0x29, 0x04, 0x19, 0x1f, 0xf7, 0x03, 0x02, 0x20, 0xc4,
  0x05, 0xb9, 0x06, 0xfd, 0x17, 0xc8, 0x0f, 0x1c, 0x13, 0xc9, 0xef, 0x0e,
  0x0e, 0x14, 0x30, 0xfa, 0xd5, 0xe2, 0x05, 0xf6, 0x31, 0xc5, 0xd9, 0xf4,
  0x1e, 0x40, 0x2f, 0xee, 0xf8, 0x01, 0x0d, 0xff, 0x1a, 0xe3, 0x2a, 0xf0,
  0x15, 0xa3, 0x17, 0x31, 0x13, 0xf0, 0xe8, 0xfb, 0xf1, 0x00, 0x2a, 0xf7,
  0xc7, 0xcd, 0xe4, 0xe4, 0x10, 0xd6, 0xc5, 0x0d, 0x18, 0x34, 0x1a, 0xee,
  0xff, 0x02, 0xfd, 0xe3, 0xe5, 0xbe, 0xfd, 0xe9, 0x1a, 0xd2, 0x16, 0x17,
  0x17, 0xea, 0xdc, 0xee, 0xef, 0xfc, 0x24, 0x02, 0xda, 0xdb, 0x0c, 0xec,
  0x21, 0x00, 0xad, 0xfa, 0x24, 0x13, 0x09, 0xfd, 0xdb, 0x1c, 0xf0, 0xae,
  0x05, 0xe2, 0x0d, 0xde, 0xdd, 0xde, 0x12, 0x17, 0x15, 0xcb, 0xf4, 0x12,
  0xcb, 0xf6, 0x27, 0xfc, 0xf8, 0xfa, 0x0a, 0x09, 0x13, 0xd4, 0xcb, 0x00,
  0x06, 0x42, 0x17, 0xfa, 0xe8, 0x25, 0xfd, 0xcb, 0x18, 0xc9, 0x38, 0xdd,
  0x0d, 0xee, 0xf5, 0x28, 0x06, 0xfc, 0xe5, 0xd6, 0xd2, 0xe8, 0x26, 0x08,
  0xdc, 0xda, 0xe5, 0x16, 0x2c, 0xf1, 0xc0, 0x01, 0x1c, 0x30, 0x23, 0xfd,
  0xe3, 0xfc, 0x15, 0xdd, 0x1d, 0xdf, 0x06, 0xe4, 0xf1, 0xd6, 0x11, 0x35,
  0x20, 0x02, 0xfc, 0xee, 0x00, 0xe3, 0xf9, 0xdd, 0xe5, 0xe4, 0x0c, 0x11,
  0x19, 0xf2, 0xcb, 0x18, 0xed, 0x0b, 0x25, 0xf0, 0x11, 0x1e, 0xf3, 0xdb,
  0x02, 0xca, 0x1c, 0xf8, 0xe5, 0x9b, 0x2c, 0x13, 0x13, 0xf1, 0x0b, 0xf8,
  0x06, 0xe2, 0x11, 0xfd, 0xea, 0xe1, 0x04, 0xe5, 0x19, 0xed, 0xe8, 0x32,
  0x1d, 0xfc, 0xf8, 0xcc, 0xd3, 0x18, 0xf1, 0xf6, 0x12, 0xfc, 0x0d, 0xf2,
  0xfb, 0xd9, 0x22, 0x10, 0x06, 0xb6, 0xe8, 0x09, 0xfa, 0xd6, 0x1d, 0xdb,
  0xec, 0xf0, 0x02, 0x05, 0x18, 0xfc, 0xe7, 0x34, 0x0d, 0xfa, 0x21, 0xe2,
  0x08, 0x04, 0xea, 0xd3, 0x09, 0xb9, 0x06, 0xd4, 0x1f, 0x9f, 0x1e, 0x05,
  0x1b, 0xc9, 0x03, 0xf7, 0xf2, 0xfd, 0x18, 0xc4, 0xd1, 0xff, 0xf8, 0xf7,
  0x06, 0xdd, 0xdb, 0x2e, 0xee, 0x19, 0x2c, 0xa3, 0x02, 0xcb, 0x0f, 0xc9,
  0x06, 0xe8, 0x0e, 0xcf, 0xff, 0xc5, 0x1f, 0xfb, 0xed, 0xca, 0xeb, 0xec,
  0x09, 0xe1, 0x1f, 0xa4, 0xd6, 0xe8, 0xe8, 0x06, 0x27, 0xde, 0x91, 0xf8,
  0xc6, 0xfc, 0xfb, 0xb7, 0xec, 0xd2, 0xd7, 0xbd, 0xfa, 0xc0, 0xf7, 0xec,
  0x01, 0xa5, 0x0d, 0x2c, 0x13, 0xbf, 0xda, 0xef, 0xdb, 0xfb, 0x0a, 0xd3,
  0xcb, 0x01, 0x08, 0xe1, 0x20, 0xf0, 0xba, 0x1f, 0xfb, 0x13, 0x1b, 0xe1,
  0xdb, 0xdc, 0xfc, 0xd5, 0x16, 0xf8, 0x03, 0xea, 0xeb, 0xaf, 0x1d, 0x25,
  0x11, 0xd5, 0xdf, 0xc2, 0x2d, 0xf3, 0xdf, 0xdf, 0x0d, 0x03, 0x2e, 0xf5,
  0x2e, 0x0b, 0x09, 0x32, 0x00, 0xd0, 0x15, 0xe5, 0x05, 0xf6, 0x2e, 0x22,
  0x1a, 0x2c, 0x1c, 0xec, 0xee, 0xcf, 0x11, 0xcb, 0x0b, 0xd0, 0x3b, 0xec,
  0x36, 0xf6, 0xf0, 0xda, 0x09, 0xe1, 0x20, 0xf4, 0x23, 0xe8, 0xfd, 0x31,
  0xeb, 0xf0, 0x05, 0xed, 0x05, 0x01, 0x29, 0x14, 0x02, 0x0d, 0x1c, 0xea,
  0x0a, 0xf9, 0xf6, 0xc0, 0x18, 0xe4, 0xfb, 0xd6, 0x20, 0x13, 0x02, 0xc9,
  0xd8, 0xf1, 0x0e, 0x13, 0x1a, 0x11, 0xef, 0x0d, 0xe8, 0xd7, 0xea, 0xdb,
  0x2d, 0x1f, 0xfe, 0x0a, 0x05, 0xef, 0x19, 0xe5, 0xf3, 0xd7, 0x09, 0xe0,
  0xf5, 0xf6, 0xf1, 0xf9, 0x2a, 0x07, 0xe5, 0xe8, 0xf7, 0xd9, 0xfb, 0x16,
  0x0c, 0x20, 0xbf, 0x02, 0x04, 0xe1, 0xda, 0xe6, 0x09, 0x0b, 0x11, 0x05,
  0xea, 0x00, 0x02, 0xe4, 0x11, 0xd8, 0x0b, 0xf8, 0x2b, 0xd1, 0x0a, 0xec,
  0x23, 0xfa, 0xb4, 0xc1, 0x06, 0xe6, 0x01, 0x11, 0x22, 0xd8, 0xb6, 0x16,
  0x0f, 0xe0, 0xe8, 0xde, 0xfe, 0x10, 0x2a, 0x1a, 0x22, 0xdf, 0xf0, 0xfd,
  0x15, 0xc4, 0x19, 0xfe, 0x0d, 0xdd, 0x0c, 0x1f, 0xf6, 0x03, 0xb3, 0xed,
  0x13, 0xdb, 0x23, 0xf2, 0x19, 0x20, 0x02, 0xfb, 0x1f, 0xe7, 0x24, 0x04,
  0x0f, 0x07, 0xfe, 0x37, 0x15, 0xdc, 0xee, 0xe5, 0xd4, 0xe1, 0x21, 0xeb,
  0xfe, 0xe5, 0x2e, 0xf2, 0xf7, 0xec, 0xd5, 0x16, 0xf5, 0xed, 0x06, 0x08,
  0xf7, 0xf9, 0xf3, 0xf3, 0xd7, 0xe9, 0x11, 0xfd, 0xfa, 0xf8, 0x15, 0x1f,
  0xf7, 0xfd, 0xdf, 0xd7, 0xec, 0xce, 0x08, 0xb7, 0x26, 0xc0, 0x19, 0xe9,
  0xfa, 0xda, 0xf4, 0xdc, 0xe3, 0xda, 0x0d, 0xf7, 0x11, 0xe3, 0xdf, 0x1d,
  0xe5, 0xdc, 0xfe, 0xe5, 0x03, 0x15, 0x14, 0x1b, 0xf1, 0xec, 0x14, 0xfc,
  0xf3, 0x01, 0xf4, 0xcd, 0x13, 0xc9, 0x03, 0xf5, 0x34, 0xe0, 0xcd, 0xf8,
  0x06, 0xb5, 0x06, 0x02, 0x28, 0x28, 0xc5, 0x08, 0xf7, 0xe7, 0xfa, 0xe3,
  0x1b, 0xf8, 0x23, 0x0a, 0x12, 0x05, 0x19, 0xe9, 0xf9, 0xd9, 0x08, 0xb5,
  0x20, 0xec, 0x08, 0xfd, 0x02, 0xe5, 0xd2, 0xe2, 0xd9, 0xcd, 0x06, 0x07,
  0xfb, 0x16, 0x00, 0x1f, 0xf3, 0xdc, 0xf5, 0xfa, 0x0a, 0xec, 0x19, 0xfd,
  0x01, 0x0a, 0xda, 0x11, 0x0e, 0xcc, 0xff, 0xbc, 0x0d, 0xf1, 0x09, 0xe1,
  0x2d, 0x13, 0xe3, 0xe7, 0x04, 0xd0, 0x1f, 0xfb, 0x06, 0xef, 0xc5, 0x10,
  0xeb, 0xcd, 0x08, 0xf5, 0x0f, 0xe3, 0x1b, 0x22, 0x2b, 0xdb, 0xea, 0xfe,
  0xdf, 0xf7, 0x09, 0xcb, 0x1c, 0xe5, 0x1a, 0xe8, 0x22, 0xfe, 0xed, 0xe0,
  0xef, 0xdd, 0x1a, 0xea, 0x2a, 0x24, 0xd9, 0x04, 0xe2, 0xd2, 0xf1, 0xfa,
  0xf9, 0x07, 0x22, 0x02, 0x1a, 0x01, 0xf5, 0xee, 0xe5, 0xdb, 0x0a, 0xbe,
  0x1e, 0xd9, 0xfb, 0x04, 0x2b, 0x18, 0xe5, 0x03, 0xf1, 0xe2, 0x2e, 0x04,
  0x21, 0x17, 0xc0, 0x02, 0x0a, 0xd7, 0x12, 0xe5, 0xff, 0x1c, 0x36, 0x04,
  0x18, 0xfa, 0x15, 0xd9, 0x03, 0xb7, 0x38, 0xd3, 0x2c, 0xb9, 0x19, 0x08,
  0x32, 0xed, 0xe3, 0x0f, 0x13, 0xe6, 0xfa, 0xe7, 0x1f, 0xe2, 0xdf, 0x23,
  0x0b, 0xdd, 0xfe, 0xdd, 0xfb, 0xcd, 0x37, 0x12, 0x0c, 0xf1, 0x1f, 0xe2,
  0xe3, 0xea, 0x2f, 0xa7, 0x17, 0xc7, 0x2a, 0x01, 0x2a, 0x1e, 0xe6, 0xde,
  0xed, 0xda, 0xe5, 0x06, 0x06, 0x05, 0xdc, 0x1c, 0xd0, 0xd5, 0xf8, 0xc2,
  0x13, 0xdf, 0x1f, 0x21, 0x05, 0xee, 0x08, 0xcd, 0xd0, 0xf7, 0x28, 0xd8,
  0x24, 0xc8, 0x2c, 0xc4, 0x22, 0x1f, 0xe8, 0xe9, 0xe0, 0xca, 0x0d, 0x03,
  0x06, 0xd6, 0xe0, 0x31, 0x0d, 0xe7, 0x25, 0xe4, 0x06, 0xe2, 0x1a, 0x0c,
  0x14, 0x05, 0xf2, 0xd8, 0x0d, 0xc6, 0x30, 0xb7, 0x0a, 0xc5, 0x25, 0xde,
  0x21, 0x05, 0xd9, 0xd1, 0xf4, 0xbb, 0x11, 0x1b, 0x08, 0xe9, 0xea, 0x3a,
  0xe7, 0xe5, 0x0c, 0xcf, 0x0e, 0xff, 0x0a, 0x0f, 0x11, 0x08, 0xef, 0xf1,
  0xdf, 0xc6, 0x35, 0xdb, 0x2e, 0xe1, 0x07, 0xf4, 0x20, 0x09, 0x00, 0xf2,
  0xe3, 0xc5, 0xec, 0x1d, 0x1f, 0xfb, 0xbd, 0x2f, 0x17, 0x07, 0x11, 0x01,
  0x03, 0xf1, 0x40, 0x05, 0xf9, 0xcf, 0xfd, 0x0b, 0xd1, 0xaa, 0x0b, 0xf7,
  0x0d, 0xc5, 0x01, 0xdb, 0x2b, 0xf6, 0x04, 0xd8, 0x15, 0xe9, 0xee, 0x12,
  0x01, 0x10, 0xe9, 0xfa, 0xe9, 0xeb, 0x17, 0xc4, 0x04, 0xec, 0x09, 0x03,
  0x1f, 0xd3, 0x21, 0xe3, 0x07, 0xf8, 0x09, 0xca, 0x19, 0xe2, 0x17, 0xfd,
  0x29, 0x07, 0xf3, 0xef, 0xf2, 0xea, 0xe0, 0x25, 0xf5, 0xff, 0xd7, 0x32,
  0xf0, 0x08, 0x0b, 0xd8, 0x1b, 0x01, 0x11, 0x10, 0xf8, 0xe0, 0x13, 0x05,
  0x13, 0xcb, 0x27, 0xf4, 0x1f, 0xd7, 0x14, 0xd8, 0x30, 0x13, 0xc8, 0xd9,
  0xe7, 0xd7, 0xfd, 0x0f, 0x1f, 0xfc, 0xf5, 0x10, 0xff, 0xec, 0x25, 0xc6,
  0x0a, 0x0a, 0x26, 0x19, 0x21, 0x0f, 0x1e, 0xf5, 0xf8, 0xb7, 0x31, 0xc7,
  0xf7, 0xdd, 0x23, 0xbf, 0x09, 0x13, 0xde, 0xd8, 0xfe, 0xc4, 0xe8, 0x25,
  0x00, 0xf9, 0xe6, 0x25, 0xec, 0xff, 0xe7, 0xc4, 0x29, 0xe5, 0x10, 0x07,
  0x20, 0x0d, 0x06, 0xd2, 0xfc, 0xd3, 0x0f, 0xd7, 0x1c, 0xd5, 0x27, 0xc7,
  0x13, 0x11, 0xe6, 0xb8, 0x00, 0xf1, 0x04, 0xf2, 0x18, 0xfb, 0xf3, 0x25,
  0xd1, 0xed, 0xfe, 0xef, 0x35, 0xd1, 0xf4, 0x2b, 0x1e, 0x0f, 0xea, 0xd3,
  0xe2, 0xd1, 0xf5, 0xf4, 0x16, 0xf9, 0x15, 0x02, 0x0c, 0xe2, 0xda, 0xcb,
  0xef, 0xff, 0x1a, 0x11, 0xe6, 0x02, 0xf7, 0x10, 0xd7, 0x12, 0x12, 0xd6,
  0x22, 0xf0, 0x0d, 0x23, 0x1a, 0xeb, 0x18, 0xf8, 0xf7, 0xdd, 0x2c, 0xdd,
  0x24, 0xf6, 0x1c, 0x01, 0xf6, 0xed, 0xda, 0xde, 0xfe, 0xe1, 0xe5, 0x17,
  0x1e, 0x03, 0xe3, 0x16, 0xe9, 0xe2, 0xf5, 0xe9, 0x09, 0xd7, 0x22, 0xed,
  0x13, 0x24, 0x0e, 0x05, 0x15, 0xd7, 0x1c, 0xf3, 0x15, 0xfe, 0x21, 0xde,
  0x09, 0x1f, 0xc9, 0xd9, 0xe8, 0x14, 0xff, 0x1c, 0x0d, 0xfd, 0xe3, 0xe9,
  0x17, 0x00, 0xee, 0xf6, 0x17, 0x08, 0xf8, 0xf0, 0x26, 0x0a, 0xe1, 0xea,
  0x01, 0xe7, 0x1c, 0xe1, 0x0d, 0x06, 0xec, 0x0d, 0x06, 0xef, 0xec, 0xe1,
  0xf4, 0xe2, 0x0a, 0xdb, 0xf0, 0x1f, 0xf5, 0x14, 0x04, 0xf8, 0xeb, 0xcd,
  0x09, 0x09, 0x27, 0xf2, 0x04, 0xf6, 0xe3, 0xf0, 0xf7, 0xf2, 0xe7, 0xfc,
  0xf7, 0xd2, 0x10, 0x07, 0x02, 0xe7, 0xcc, 0xcc, 0x04, 0xf0, 0xdd, 0xff,
  0x18, 0xf4, 0xf6, 0x02, 0xf0, 0xf9, 0x00, 0xfd, 0xfa, 0xe8, 0x08, 0x13,
  0xea, 0xef, 0xe8, 0xc9, 0xf4, 0xf2, 0x0a, 0xc0, 0x11, 0xed, 0xf9, 0xe5,
  0x27, 0x0c, 0xd3, 0xdd, 0x0c, 0xe9, 0x1b, 0xdf, 0xfe, 0x0d, 0x0d, 0xf9,
  0xdf, 0xe2, 0x17, 0xd6, 0x31, 0xe9, 0x0c, 0x19, 0x20, 0xf3, 0x18, 0xf8,
  0xed, 0x08, 0xec, 0xe6, 0x0f, 0xef, 0x24, 0xc0, 0x00, 0xeb, 0xe0, 0x09,
  0xfe, 0x0c, 0xe4, 0xf6, 0x23, 0xed, 0xf1, 0x09, 0x04, 0xf4, 0x18, 0xbd,
  0x23, 0x13, 0xf4, 0x0d, 0x06, 0x02, 0x11, 0x07, 0xe4, 0xed, 0xe3, 0xc6,
  0x04, 0x0c, 0x2e, 0xe4, 0x04, 0xe6, 0x01, 0xdc, 0xf5, 0xd4, 0x05, 0x0f,
  0xec, 0xdd, 0x00, 0x0d, 0xfb, 0xe5, 0x1f, 0xc6, 0xf6, 0x29, 0x08, 0x25,
  0xf6, 0x09, 0x0f, 0xe7, 0x01, 0xc9, 0xfc, 0xe2, 0xec, 0xed, 0x12, 0xc8,
  0x22, 0xe6, 0x0c, 0xec, 0x03, 0xdd, 0x05, 0x0b, 0x06, 0x0f, 0xd4, 0x0e,
  0xfc, 0x03, 0xe3, 0xeb, 0x0f, 0x2f, 0x0c, 0x0d, 0xe6, 0xfb, 0xe8, 0x08,
  0xfe, 0xe6, 0x0d, 0xf1, 0x1a, 0x0f, 0x33, 0x13, 0xf3, 0x1d, 0xd3, 0x08,
  0xfd, 0x0e, 0x06, 0x00, 0x19, 0x0b, 0x19, 0xfd, 0x10, 0x0d, 0xfd, 0x02,
  0x06, 0xe1, 0x13, 0xf8, 0xfb, 0x18, 0xe9, 0x16, 0x1a, 0x06, 0xf7, 0xf3,
  0x2c, 0xfc, 0x19, 0x10, 0xf9, 0xeb, 0xd8, 0x0d, 0x0a, 0xd6, 0x2a, 0xda,
  0x08, 0xe9, 0xea, 0x14, 0x20, 0x0d, 0x22, 0xee, 0xf7, 0xea, 0x0f, 0x17,
  0xfa, 0x09, 0xfd, 0xd7, 0x2d, 0xf3, 0xf8, 0xf1, 0x28, 0xfc, 0x0f, 0x29,
  0xdf, 0x43, 0x10, 0x05, 0x09, 0x35, 0x07, 0xff, 0xf5, 0xfc, 0xfa, 0x1e,
  0xfe, 0x2d, 0x24, 0xeb, 0x06, 0xe1, 0xf3, 0xd5, 0x2e, 0x16, 0xe5, 0x02,
  0x42, 0x35, 0x14, 0xec, 0x03, 0x2e, 0xd1, 0x25, 0xed, 0x20, 0xf3, 0x10,
  0x01, 0x0c, 0xf9, 0x22, 0xe5, 0xe8, 0xff, 0x00, 0x15, 0x25, 0xfe, 0xf4,
  0xdc, 0xfd, 0xde, 0x01, 0x10, 0x2c, 0xe1, 0xdc, 0x10, 0x13, 0x23, 0x06,
  0x0d, 0x13, 0x02, 0x01, 0xfd, 0x3a, 0xee, 0x29, 0x04, 0x27, 0x35, 0x10,
  0xf5, 0xef, 0x12, 0x05, 0x2f, 0x1a, 0x16, 0xe0, 0x03, 0xf0, 0xf2, 0xfb,
  0xef, 0x21, 0x04, 0xdb, 0xf7, 0x0c, 0xee, 0xde, 0xfd, 0x36, 0xf1, 0x2f,
  0x24, 0x0c, 0x01, 0xfb, 0x1c, 0x24, 0x2a, 0xf9, 0xec, 0x23, 0xfe, 0xeb,
  0x02, 0x01, 0xfb, 0xfc, 0xec, 0xd0, 0x1f, 0xe6, 0x09, 0x07, 0xed, 0xf4,
  0x0a, 0x1f, 0x12, 0x06, 0xfd, 0x22, 0x0c, 0x11, 0xff, 0x24, 0x23, 0x0c,
  0x1b, 0x2c, 0x13, 0xfb, 0x10, 0x31, 0x06, 0x05, 0xf8, 0x32, 0xff, 0xe9,
  0xfa, 0xbe, 0x10, 0x12, 0x1c, 0xf2, 0x17, 0x02, 0x09, 0xfd, 0xd2, 0xf5,
  0x1a, 0x13, 0x16, 0xf4, 0x09, 0x2b, 0x1e, 0xf1, 0xf7, 0x10, 0x18, 0x00,
  0xf0, 0xf1, 0xeb, 0xf4, 0xd4, 0x34, 0x0a, 0xe3, 0xe8, 0xb8, 0xf6, 0x11,
  0xf5, 0x2d, 0xe5, 0xeb, 0x02, 0x15, 0x0e, 0xfe, 0x02, 0x11, 0xfb, 0x19,
  0xef, 0x22, 0xf9, 0x11, 0x07, 0xf9, 0x09, 0xf9, 0x03, 0xef, 0xfb, 0xe9,
  0xf9, 0x14, 0x1a, 0xe5, 0xfd, 0xc9, 0x23, 0x01, 0x21, 0x25, 0xf4, 0xf7,
  0xec, 0x13, 0xf3, 0x0f, 0xf5, 0x2d, 0xe4, 0xe6, 0xee, 0x00, 0x06, 0xff,
  0x2f, 0x00, 0x12, 0x06, 0x11, 0x17, 0x0a, 0x12, 0xf4, 0x22, 0x1c, 0x06,
  0xcd, 0xbe, 0x27, 0x01, 0x18, 0x01, 0x19, 0xe8, 0x1e, 0x1c, 0xff, 0xe3,
  0xff, 0x20, 0xf1, 0x01, 0x06, 0x15, 0xfa, 0x08, 0xe6, 0xf7, 0x02, 0x05,
  0xf1, 0xf2, 0x0f, 0x08, 0xef, 0x14, 0x2f, 0xdf, 0xe0, 0xeb, 0x22, 0x07,
  0x0b, 0x06, 0xe6, 0xc9, 0x02, 0x06, 0x19, 0x09, 0x23, 0x27, 0xf9, 0x1c,
  0xda, 0x17, 0x0f, 0x0f, 0x12, 0x02, 0x0e, 0x0e, 0xdd, 0x1f, 0x10, 0xe6,
  0xf3, 0x02, 0x14, 0xed, 0x0b, 0xd0, 0xe0, 0xe2, 0x14, 0x09, 0xde, 0xe2,
  0x0d, 0x23, 0xfe, 0xf9, 0x00, 0x0d, 0xed, 0x01, 0x0d, 0x0a, 0x10, 0xf8,
  0xff, 0x15, 0xfe, 0xe3, 0xe8, 0xe2, 0xec, 0xde, 0xe3, 0x02, 0xf4, 0xe4,
  0x02, 0xf4, 0xe2, 0x13, 0x04, 0x29, 0xf3, 0xe7, 0x1c, 0xe9, 0xf6, 0x16,
  0xdd, 0x0f, 0x1c, 0x27, 0xf1, 0x09, 0xf6, 0x08, 0x07, 0x1f, 0xeb, 0x07,
  0xc1, 0x01, 0x08, 0x0d, 0xd9, 0x23, 0xea, 0xcd, 0xd9, 0xe8, 0xf4, 0xfa,
  0x0f, 0x1d, 0xef, 0x13, 0xe5, 0xf8, 0xec, 0xec, 0xd5, 0x01, 0xf8, 0xfb,
  0xfe, 0x16, 0x11, 0xe8, 0x0e, 0x27, 0xfe, 0xe7, 0xd0, 0xc9, 0xfb, 0xcf,
  0xe1, 0x1e, 0xfe, 0xea, 0x08, 0xed, 0xfe, 0xfe, 0x0d, 0x21, 0x03, 0xf3,
  0x1e, 0x05, 0xf3, 0x20, 0xe1, 0x10, 0x1c, 0xf8, 0xf8, 0x08, 0xf0, 0xe4,
  0xe0, 0x27, 0x01, 0xed, 0xf2, 0xcb, 0xee, 0xd9, 0x04, 0x07, 0x11, 0xd9,
  0xdb, 0xfe, 0xf6, 0x00, 0x23, 0x11, 0x03, 0x01, 0xfa, 0xfc, 0xeb, 0xec,
  0xf0, 0x16, 0x02, 0x24, 0xdf, 0xf4, 0xff, 0x03, 0x05, 0x1a, 0xfb, 0x0b,
  0xfd, 0xfe, 0x0b, 0xea, 0xd7, 0x06, 0xf4, 0xe6, 0xd4, 0xfa, 0x00, 0x09,
  0x12, 0x1b, 0xfe, 0x01, 0x16, 0x09, 0xfe, 0x05, 0x19, 0x03, 0x13, 0x23,
  0x00, 0x0a, 0x0c, 0xf2, 0xe8, 0x23, 0x0a, 0x02, 0xe3, 0xdc, 0xf6, 0xea,
  0xfb, 0x32, 0x0c, 0xf6, 0x04, 0xf2, 0xe6, 0xec, 0x2a, 0x21, 0xfb, 0x09,
  0xea, 0x16, 0xee, 0xe5, 0x14, 0x06, 0xff, 0xee, 0xea, 0xfa, 0x17, 0x0b,
  0xfa, 0x14, 0xf8, 0xf5, 0xeb, 0x14, 0x09, 0xfd, 0x05, 0x25, 0xfb, 0xe6,
  0xed, 0xed, 0xe3, 0xf0, 0x04, 0x2d, 0xdf, 0x01, 0x12, 0xeb, 0xf6, 0x01,
  0x07, 0xf8, 0x05, 0x2a, 0xf6, 0x1b, 0xf3, 0x09, 0xf9, 0xf4, 0x11, 0xdd,
  0x00, 0x10, 0xfd, 0x06, 0xda, 0x1b, 0xf9, 0xfb, 0xf8, 0xe4, 0xe4, 0xf5,
  0x1d, 0xfc, 0xf1, 0xf6, 0x03, 0x1e, 0xf4, 0x01, 0x0a, 0x16, 0xf6, 0x04,
  0xe2, 0xf3, 0x1e, 0x06, 0xeb, 0x27, 0xff, 0x08, 0x0d, 0xe2, 0xf9, 0xfc,
  0xca, 0x10, 0xf7, 0xe1, 0xee, 0xb9, 0xd7, 0xea, 0x09, 0x2f, 0xca, 0x08,
  0x01, 0x0a, 0xdb, 0xf1, 0xdf, 0x1a, 0x01, 0xfb, 0xea, 0x18, 0x1a, 0xda,
  0x0b, 0x1c, 0x11, 0xe7, 0xee, 0x18, 0x21, 0x04, 0xc8, 0x2c, 0xf1, 0xdf,
  0xf0, 0xa8, 0xf7, 0x13, 0x25, 0x28, 0xd9, 0xfe, 0xee, 0x11, 0xcb, 0xef,
  0xe4, 0x30, 0xf5, 0xf7, 0xf2, 0x11, 0x02, 0xea, 0xfd, 0x02, 0xe3, 0xdd,
  0xf4, 0xfe, 0xfc, 0xed, 0xf7, 0x21, 0xeb, 0xec, 0xfc, 0xbf, 0xf0, 0xeb,
  0xff, 0x16, 0x08, 0xf3, 0xf5, 0x11, 0xe8, 0xf9, 0xeb, 0xfb, 0xdc, 0xee,
  0x02, 0x1c, 0x16, 0xf2, 0xef, 0x16, 0xf9, 0xfe, 0x04, 0xe7, 0x03, 0x0d,
  0xfa, 0x28, 0xf8, 0xfd, 0xd5, 0xbf, 0xef, 0xe0, 0x21, 0xf6, 0xe9, 0xe4,
  0xf9, 0xed, 0xe5, 0xf0, 0xfd, 0x18, 0xf1, 0x1a, 0xf3, 0xfa, 0x10, 0xfe,
  0x03, 0xfa, 0xf1, 0xe9, 0x06, 0x0b, 0x09, 0xf9, 0xfc, 0xfe, 0x04, 0xfb,
  0xde, 0xd2, 0x0e, 0xbe, 0x23, 0x19, 0xef, 0xe5, 0xfa, 0x0f, 0x05, 0x0e,
  0x0a, 0x23, 0xc5, 0x24, 0xfd, 0x06, 0x06, 0xfa, 0x10, 0x2e, 0x13, 0xf7,
  0xef, 0x0c, 0x0a, 0x21, 0xd6, 0xff, 0x0f, 0xdc, 0xf4, 0xb2, 0xf0, 0xe7,
  0x17, 0xe7, 0xe9, 0xeb, 0xdd, 0x18, 0xea, 0xff, 0x05, 0x39, 0xeb, 0xf5,
  0xea, 0x14, 0x15, 0x01, 0xef, 0x09, 0xe6, 0x09, 0xed, 0xf0, 0x0c, 0xe5,
  0xeb, 0x06, 0xf3, 0x00, 0x07, 0xdb, 0x05, 0xd8, 0x12, 0x24, 0xde, 0xd8,
  0x21, 0xf7, 0xec, 0xe1, 0xfb, 0x34, 0xf1, 0x07, 0xf7, 0x1a, 0xfd, 0xf2,
  0xf8, 0x27, 0x04, 0x12, 0xf3, 0xf0, 0xfa, 0xff, 0xda, 0x1d, 0xfc, 0xee,
  0xec, 0xde, 0xf4, 0xe3, 0x21, 0x13, 0xd7, 0xcc, 0xe7, 0x1a, 0xf4, 0xe1,
  0x07, 0x0a, 0x07, 0x0b, 0xf1, 0xf4, 0x21, 0xf4, 0xf6, 0xfa, 0x04, 0xdd,
  0xf6, 0x1e, 0x20, 0x08, 0xe8, 0x2e, 0xe4, 0xf6, 0x0d, 0xec, 0xd6, 0x03,
  0x15, 0x09, 0xfb, 0xef, 0xf9, 0xe7, 0x02, 0xdd, 0xff, 0x27, 0x15, 0x29,
  0xdc, 0x08, 0xf8, 0xeb, 0x0e, 0x1d, 0x0e, 0x11, 0x0a, 0x26, 0x0f, 0x18,
  0xf0, 0xfb, 0x19, 0xfd, 0xe2, 0x0a, 0x00, 0xdb, 0x07, 0x18, 0x02, 0xd5,
  0x1f, 0x29, 0xde, 0xe5, 0xf3, 0x36, 0xee, 0x22, 0xfa, 0xff, 0x0b, 0x08,
  0x15, 0x0d, 0xfb, 0xfc, 0x03, 0x31, 0x0c, 0xf5, 0xe2, 0xfa, 0x13, 0x0d,
  0xe9, 0xc9, 0x11, 0xe6, 0x26, 0xf8, 0xec, 0xf4, 0x0c, 0xf6, 0x08, 0xe9,
  0x14, 0x3b, 0xfb, 0x28, 0xed, 0x20, 0x11, 0xe4, 0x03, 0x0d, 0x09, 0x12,
  0x0a, 0x1a, 0x1f, 0x0f, 0xf0, 0x14, 0x10, 0xe3, 0xe3, 0xd4, 0xfb, 0xce,
  0x1c, 0x0a, 0xdf, 0x07, 0xe7, 0x11, 0x09, 0xe9, 0x25, 0x2e, 0xe1, 0x0b,
  0xe9, 0x31, 0x13, 0xf9, 0x1e, 0x16, 0x2d, 0xfc, 0xe2, 0x0b, 0x02, 0x09,
  0xf9, 0x11, 0x1f, 0xf9, 0xdb, 0xf4, 0x04, 0xf0, 0x06, 0x1e, 0xda, 0xf4,
  0xf7, 0xfb, 0xe5, 0xf0, 0x1b, 0x0f, 0xf0, 0x22, 0xe3, 0x08, 0x08, 0x19,
  0xfb, 0x2b, 0x0e, 0xde, 0xec, 0x04, 0x21, 0x08, 0x08, 0x16, 0x2e, 0x19,
  0xeb, 0xf8, 0xd5, 0x00, 0x23, 0x29, 0x02, 0x05, 0xf7, 0xfc, 0x15, 0x08,
  0xfe, 0x38, 0x0f, 0xff, 0xec, 0x2b, 0x1e, 0x18, 0xf0, 0x1c, 0x26, 0x1c,
  0xea, 0xf7, 0x12, 0xe4, 0x00, 0x09, 0x3e, 0x04, 0xf6, 0x0b, 0xda, 0xfa,
  0x03, 0xf9, 0x12, 0xfc, 0xf6, 0xfd, 0x09, 0x1d, 0x24, 0x36, 0xf6, 0xf8,
  0xea, 0x36, 0x0e, 0xe7, 0xfd, 0x41, 0x2b, 0x25, 0xe5, 0x2b, 0xfc, 0x0a,
  0xfa, 0x34, 0x18, 0x23, 0xfe, 0xcd, 0xd8, 0x02, 0x10, 0xeb, 0xfa, 0x10,
  0x16, 0x23, 0x08, 0x38, 0xef, 0x2b, 0x0e, 0x1a, 0x26, 0x31, 0x09, 0x33,
  0x00, 0x10, 0xd7, 0xfd, 0xf0, 0xcb, 0xd1, 0x18, 0xc4, 0xe0, 0xa9, 0xde,
  0xf2, 0x10, 0xc1, 0x01, 0x1c, 0xca, 0xe6, 0x16, 0x11, 0x8b, 0xda, 0x9d,
  0xbf, 0xad, 0x12, 0xd1, 0x1d, 0x0e, 0x20, 0x2e, 0x0c, 0xf3, 0xa0, 0x02,
  0xe1, 0xd6, 0x9d, 0x25, 0xd0, 0xc6, 0xba, 0xed, 0x12, 0x05, 0xe9, 0xe6,
  0x02, 0xe3, 0xec, 0x0b, 0x02, 0xa0, 0xda, 0xa7, 0xd3, 0xb1, 0xd0, 0xbf,
  0x00, 0x3b, 0x21, 0x13, 0x31, 0x04, 0xc4, 0x26, 0xfb, 0xb2, 0xd9, 0x1c,
  0xf2, 0xae, 0xd4, 0x17, 0x11, 0xf7, 0xe8, 0xe8, 0xfc, 0xff, 0xe9, 0x27,
  0x00, 0xa3, 0xdb, 0xcf, 0xe2, 0xbd, 0xf3, 0xa4, 0x19, 0x13, 0xfa, 0x34,
  0x3c, 0xe8, 0xca, 0x00, 0x16, 0xc4, 0xb1, 0xff, 0xd2, 0x98, 0x9e, 0xe6,
  0xfa, 0xea, 0xdd, 0xe7, 0xfe, 0x0c, 0xee, 0x18, 0x1e, 0xb6, 0xd6, 0xa3,
  0xda, 0xc7, 0x05, 0xd6, 0x0e, 0x37, 0x0d, 0x4d, 0x1b, 0x10, 0xaa, 0x24,
  0x02, 0xcc, 0x96, 0x17, 0xc0, 0xac, 0x9a, 0xf0, 0xfa, 0x08, 0xd9, 0xec,
  0x21, 0x02, 0xe5, 0x23, 0x19, 0x9e, 0xc9, 0xb1, 0xe4, 0xe9, 0xfa, 0x9f,
  0x06, 0x1c, 0x1a, 0x3a, 0x20, 0xfc, 0xad, 0x12, 0x08, 0xcf, 0xd6, 0x2e,
  0xaf, 0xca, 0x9b, 0xff, 0x0f, 0xf7, 0xec, 0x00, 0x0a, 0xf5, 0xdd, 0x0c,
  0x1b, 0xb0, 0xce, 0xa9, 0xc6, 0xdd, 0xc2, 0xb1, 0x3b, 0x1c, 0x2b, 0x1f,
  0x24, 0x23, 0xb9, 0x4a, 0x3a, 0xd2, 0xc6, 0x2e, 0xe6, 0xb2, 0xbf, 0xe4,
  0xeb, 0xec, 0xdf, 0x2f, 0x1a, 0x08, 0x0a, 0x1e, 0x1e, 0xa0, 0xf5, 0xa2,
  0xe8, 0xdd, 0xd2, 0xc2, 0x0a, 0x3b, 0x1c, 0x3e, 0x10, 0xfd, 0xa6, 0x26,
  0x39, 0xf2, 0xb9, 0x13, 0xbb, 0xe2, 0xcb, 0xf7, 0x00, 0x01, 0xbc, 0xf8,
  0x04, 0xe5, 0x11, 0xff, 0xff, 0xb9, 0xda, 0xce, 0xf8, 0x06, 0xc4, 0xa2,
  0xf2, 0x43, 0x0c, 0x1c, 0x15, 0x26, 0x9d, 0x02, 0x05, 0xe1, 0xc1, 0x2d,
  0xef, 0xa4, 0x86, 0xf5, 0xed, 0xf1, 0xf2, 0xf2, 0x27, 0x0f, 0xdf, 0x22,
  0xfc, 0xd1, 0xdb, 0xad, 0xe3, 0xd4, 0xe1, 0xf7, 0x0f, 0x33, 0x0b, 0x31,
  0x0a, 0xf2, 0xac, 0x36, 0xf1, 0xbc, 0xbf, 0x33, 0x01, 0xc6, 0x95, 0xef,
  0xf8, 0x17, 0xe5, 0x14, 0x06, 0xd7, 0xd9, 0x1d, 0xf6, 0xd8, 0xb6, 0xb7,
  0xe9, 0x0a, 0xc5, 0xd2, 0x22, 0x2c, 0x09, 0x29, 0x23, 0xf8, 0x92, 0x11,
  0x1e, 0xf2, 0xc4, 0x40, 0xf9, 0xb5, 0xaf, 0x13, 0xfa, 0x2c, 0xc7, 0x1f,
  0x1f, 0xe7, 0xe5, 0xfc, 0x16, 0xd8, 0xd0, 0xd2, 0x02, 0xdc, 0xc1, 0xc4,
  0x23, 0x29, 0xf5, 0x41, 0x21, 0x16, 0xa0, 0x3e, 0x11, 0xfc, 0xdd, 0x38,
  0xd5, 0xcc, 0xa2, 0x09, 0xec, 0x24, 0xc4, 0x19, 0xf6, 0x13, 0xf5, 0xfc,
  0xf0, 0xd2, 0xd0, 0xb7, 0xed, 0xfe, 0xca, 0xbd, 0xfb, 0x28, 0x0c, 0x3b,
  0x24, 0x13, 0xdb, 0x16, 0x26, 0x06, 0xec, 0x37, 0xd2, 0xab, 0xad, 0xf1,
  0x12, 0x18, 0xde, 0xfa, 0xeb, 0x03, 0x0d, 0x21, 0x10, 0xdd, 0xe9, 0xb7,
  0xc9, 0xf1, 0xce, 0xd5, 0xfe, 0x2f, 0xf9, 0x22, 0x2c, 0x03, 0xbd, 0x25,
  0x1e, 0xce, 0xd3, 0x05, 0xc1, 0xc7, 0x9f, 0xff, 0x07, 0xf6, 0xfb, 0x22,
  0x0c, 0x04, 0xd9, 0x03, 0x0b, 0xca, 0xc0, 0xbf, 0xf1, 0x0a, 0xcf, 0xc2,
  0xf7, 0x11, 0x14, 0x25, 0x02, 0x0f, 0xd4, 0x2a, 0xf1, 0xdf, 0xe7, 0x2e,
  0xc0, 0xa7, 0x8c, 0xfd, 0xe0, 0x1e, 0xc6, 0xf3, 0x17, 0x00, 0xde, 0x1f,
  0xe7, 0xd4, 0xb3, 0xc3, 0xd5, 0xe9, 0xcd, 0xd3, 0xfa, 0x38, 0x20, 0x4f,
  0x21, 0xed, 0xde, 0x14, 0x1f, 0xb5, 0xcc, 0x34, 0xf6, 0xcb, 0x9b, 0xde,
  0xe0, 0xfc, 0xc5, 0xe7, 0x2c, 0x01, 0xd3, 0x1e, 0xdf, 0xd5, 0xc9, 0xc7,
  0xe5, 0xff, 0xd4, 0xbf, 0x03, 0x0e, 0x0f, 0x05, 0x28, 0x11, 0xb5, 0x0d,
  0x22, 0xe1, 0xcc, 0x0a, 0xfb, 0xbd, 0xc7, 0xdb, 0x0e, 0xf2, 0xed, 0xf2,
  0xfd, 0xda, 0x0c, 0x28, 0xfa, 0xa6, 0xe2, 0xa5, 0xb9, 0x0e, 0xdc, 0xd8,
  0x17, 0x1d, 0x2e, 0x14, 0x2a, 0x16, 0xa8, 0x17, 0x06, 0xdc, 0xcf, 0x11,
  0xb7, 0xc3, 0xd0, 0xf7, 0xf8, 0xde, 0xd0, 0x11, 0x11, 0x03, 0xdb, 0x1b,
  0xd8, 0xad, 0xc5, 0xc0, 0xe1, 0x0f, 0xe9, 0xb4, 0xfd, 0x20, 0x1a, 0x20,
  0xff, 0x0c, 0xb5, 0x30, 0xfb, 0xcd, 0xb4, 0x1e, 0xeb, 0xa9, 0xc9, 0xdd,
  0xe3, 0x04, 0xc1, 0xec, 0xfa, 0xe3, 0xcd, 0x0b, 0xe4, 0xc3, 0xbb, 0xd7,
  0xd9, 0x10, 0xfe, 0xb7, 0x07, 0x33, 0x24, 0x43, 0x11, 0x21, 0xa0, 0x24,
  0x00, 0xdd, 0xb2, 0xfe, 0xde, 0xc3, 0xba, 0x0b, 0xfc, 0xff, 0xd3, 0xf7,
  0x13, 0x0e, 0x07, 0x0d, 0xee, 0xd2, 0xe0, 0x99, 0xe2, 0xf2, 0xe3, 0xc5,
  0x1e, 0x16, 0x0b, 0x2d, 0x22, 0x0d, 0xc4, 0x1c, 0x08, 0xdb, 0xc1, 0x0b,
  0xf4, 0xb1, 0xae, 0x00, 0xe9, 0x08, 0xe0, 0x04, 0x1d, 0x02, 0x07, 0x04,
  0xf2, 0xcc, 0xba, 0xbd, 0xc9, 0xf3, 0xb7, 0xd8, 0xfa, 0x19, 0x11, 0x23,
  0x04, 0x19, 0xc8, 0x16, 0x06, 0xf3, 0xc3, 0x34, 0xc4, 0xaa, 0xb1, 0xfe,
  0xec, 0xfe, 0xca, 0xf5, 0x0c, 0x0a, 0xf0, 0x2b, 0xee, 0xa6, 0xd4, 0xab,
  0xe2, 0xe8, 0xcb, 0xe0, 0x07, 0x28, 0x07, 0x49, 0x24, 0x27, 0xad, 0x35,
  0x0d, 0xca, 0xac, 0x25, 0xf3, 0xb1, 0x87, 0xfe, 0x16, 0xf1, 0xdc, 0xff,
  0xf8, 0x1f, 0xfd, 0xfc, 0xe4, 0xc3, 0xa5, 0xa4, 0xdd, 0xec, 0xd0, 0xb7,
  0xe5, 0x3a, 0x29, 0x47, 0x1e, 0x2c, 0xa4, 0x35, 0xf3, 0xd9, 0xd0, 0x0e,
  0xcd, 0xa2, 0xac, 0x19, 0x02, 0xec, 0xcb, 0xf7, 0x10, 0xf9, 0xd2, 0x28,
  0x03, 0xbf, 0xe1, 0xd2, 0xea, 0x15, 0xc0, 0xac, 0xe6, 0x17, 0x17, 0x0b,
  0x05, 0x21, 0x91, 0x4d, 0xf4, 0xbe, 0xd1, 0x02, 0xe5, 0xc4, 0xd2, 0x07,
  0xee, 0x0c, 0xba, 0xea, 0x12, 0x0c, 0x09, 0x1c, 0xda, 0xcf, 0xc9, 0x96,
  0xea, 0x0b, 0xd4, 0xcd, 0x1f, 0x11, 0x19, 0x27, 0x34, 0x15, 0x96, 0x3a,
  0x10, 0xdf, 0xc6, 0x20, 0xec, 0xdf, 0x9b, 0x08, 0xfb, 0x10, 0xc0, 0xf7,
  0x21, 0xf0, 0xd8, 0x23, 0xe5, 0xa1, 0xca, 0xbc, 0xe7, 0x0f, 0xb2, 0xc7,
  0xe7, 0x22, 0x2b, 0x3c, 0x32, 0x24, 0xb0, 0x4d, 0x28, 0xed, 0xc9, 0x26,
  0xe4, 0xc2, 0x8d, 0xf4, 0xd6, 0xf6, 0xba, 0x10, 0x15, 0x00, 0xe0, 0x25,
  0xe0, 0x9b, 0xbc, 0xc5, 0xf6, 0x02, 0xd9, 0xab, 0xf1, 0x13, 0x16, 0x26,
  0x22, 0x37, 0xbe, 0x12, 0xf7, 0xd3, 0xbc, 0x05, 0xcd, 0xe8, 0xcd, 0xdb,
  0xd3, 0x06, 0xf5, 0x07, 0x11, 0xf7, 0xe4, 0xf8, 0x0f, 0xcf, 0xd5, 0x9e,
  0xcd, 0xfe, 0xc3, 0xdb, 0x0b, 0x36, 0x0f, 0x3b, 0x1f, 0x0e, 0x8f, 0x17,
  0x06, 0xe2, 0x9a, 0x2e, 0xc0, 0xde, 0xb4, 0x07, 0xfc, 0x17, 0xbf, 0xe6,
  0xfb, 0x01, 0xd9, 0x27, 0xf4, 0xd4, 0xbd, 0xa5, 0xfc, 0x0b, 0xca, 0xbb,
  0x12, 0x0e, 0x3d, 0x15, 0x17, 0x0d, 0xa2, 0x4a, 0x19, 0xba, 0x98, 0x27,
  0xee, 0xb6, 0x87, 0xee, 0x0c, 0x0f, 0xbe, 0xff, 0x06, 0x01, 0xd9, 0x19,
  0x09, 0xd9, 0xc8, 0x9f, 0xf4, 0xef, 0xd3, 0xc7, 0x0e, 0x2f, 0x2c, 0x44,
  0x1c, 0x17, 0xa4, 0x3c, 0x27, 0xc9, 0xbb, 0x33, 0xb4, 0xd4, 0xb3, 0x1d,
  0xcd, 0xf4, 0xdf, 0x07, 0xf6, 0xf3, 0xd0, 0x2c, 0x20, 0xb6, 0xb6, 0xba,
  0xdd, 0x00, 0xb3, 0xbe, 0x28, 0x30, 0x16, 0x3a, 0x23, 0x22, 0x8b, 0x2d,
  0x23, 0xc0, 0xb5, 0x14, 0xbe, 0xb6, 0xaf, 0xe9, 0xff, 0x14, 0xad, 0xda,
  0x0c, 0xcd, 0xdf, 0x33, 0xe4, 0xc9, 0xae, 0xaa, 0xf6, 0x06, 0xbf, 0xcf,
  0x23, 0x0d, 0x3f, 0x28, 0x2f, 0x2f, 0x81, 0x0f, 0x24, 0xd5, 0xcb, 0x43,
  0xbf, 0xb8, 0x8d, 0x03, 0xfd, 0xfd, 0xb6, 0xdd, 0xed, 0xe0, 0xd6, 0x21,
  0xf1, 0x9f, 0xa2, 0x99, 0xe5, 0xe2, 0xca, 0xe6, 0x1d, 0x35, 0x3d, 0x11,
  0x30, 0x22, 0xb4, 0x23, 0x0b, 0xe2, 0xb1, 0x2b, 0xe1, 0xa5, 0xb9, 0xf8,
  0xfe, 0xe9, 0xb5, 0x0b, 0xee, 0xd1, 0xe5, 0x16, 0xec, 0xcd, 0xc5, 0xb6,
  0xf3, 0xe5, 0xd4, 0xa9, 0x36, 0xff, 0xff, 0xff, 0x04, 0x00, 0x00, 0x00,
  0x1c, 0x00, 0x00, 0x00, 0xe3, 0xff, 0xff, 0xff, 0xa5, 0xff, 0xff, 0xff,
  0x89, 0xfe, 0xff, 0xff, 0xe9, 0xff, 0xff, 0xff, 0x79, 0xff, 0xff, 0xff,
  0x40, 0x00, 0x00, 0x00, 0x62, 0x01, 0x00, 0x00, 0x5e, 0xff, 0xff, 0xff,
  0x04, 0x00, 0x00, 0x00, 0x08, 0x00, 0x00, 0x00, 0xff, 0xff, 0xff, 0xff,
  0x40, 0x04, 0x00, 0x00, 0x04, 0xf1, 0xff, 0xff, 0x08, 0xf1, 0xff, 0xff,
  0x0f, 0x00, 0x00, 0x00, 0x4d, 0x4c, 0x49, 0x52, 0x20, 0x43, 0x6f, 0x6e,
  0x76, 0x65, 0x72, 0x74, 0x65, 0x64, 0x2e, 0x00, 0x01, 0x00, 0x00, 0x00,
  0x14, 0x00, 0x00, 0x00, 0x00, 0x00, 0x0e, 0x00, 0x18, 0x00, 0x14, 0x00,
  0x10, 0x00, 0x0c, 0x00, 0x08, 0x00, 0x04, 0x00, 0x0e, 0x00, 0x00, 0x00,
  0x14, 0x00, 0x00, 0x00, 0x1c, 0x00, 0x00, 0x00, 0xcc, 0x01, 0x00, 0x00,
  0xd0, 0x01, 0x00, 0x00, 0xd4, 0x01, 0x00, 0x00, 0x04, 0x00, 0x00, 0x00,
  0x6d, 0x61, 0x69, 0x6e, 0x00, 0x00, 0x00, 0x00, 0x06, 0x00, 0x00, 0x00,
  0x64, 0x01, 0x00, 0x00, 0x10, 0x01, 0x00, 0x00, 0xbc, 0x00, 0x00, 0x00,
  0x84, 0x00, 0x00, 0x00, 0x40, 0x00, 0x00, 0x00, 0x04, 0x00, 0x00, 0x00,
  0x62, 0xff, 0xff, 0xff, 0x1c, 0x00, 0x00, 0x00, 0x00, 0x00, 0x00, 0x09,
  0x1c, 0x00, 0x00, 0x00, 0x20, 0x00, 0x00, 0x00, 0x04, 0x00, 0x00, 0x00,
  0x00, 0x00, 0x06, 0x00, 0x08, 0x00, 0x04, 0x00, 0x06, 0x00, 0x00, 0x00,
  0x00, 0x00, 0x80, 0x3f, 0x01, 0x00, 0x00, 0x00, 0x0d, 0x00, 0x00, 0x00,
  0x01, 0x00, 0x00, 0x00, 0x0c, 0x00, 0x00, 0x00, 0x9a, 0xff, 0xff, 0xff,
  0x14, 0x00, 0x00, 0x00, 0x00, 0x00, 0x00, 0x08, 0x10, 0x00, 0x00, 0x00,
  0x14, 0x00, 0x00, 0x00, 0x03, 0x00, 0x00, 0x00, 0xc8, 0xf1, 0xff, 0xff,
  0x01, 0x00, 0x00, 0x00, 0x0c, 0x00, 0x00, 0x00, 0x03, 0x00, 0x00, 0x00,
  0x0b, 0x00, 0x00, 0x00, 0x03, 0x00, 0x00, 0x00, 0x02, 0x00, 0x00, 0x00,
  0x00, 0x00, 0x0a, 0x00, 0x10, 0x00, 0x0c, 0x00, 0x08, 0x00, 0x04, 0x00,
  0x0a, 0x00, 0x00, 0x00, 0x0c, 0x00, 0x00, 0x00, 0x10, 0x00, 0x00, 0x00,
  0x02, 0x00, 0x00, 0x00, 0x01, 0x00, 0x00, 0x00, 0x0b, 0x00, 0x00, 0x00,
  0x02, 0x00, 0x00, 0x00, 0x0a, 0x00, 0x00, 0x00, 0x01, 0x00, 0x00, 0x00,
  0x00, 0x00, 0x0e, 0x00, 0x1a, 0x00, 0x14, 0x00, 0x10, 0x00, 0x0c, 0x00,
  0x0b, 0x00, 0x04, 0x00, 0x0e, 0x00, 0x00, 0x00, 0x24, 0x00, 0x00, 0x00,
  0x00, 0x00, 0x00, 0x05, 0x34, 0x00, 0x00, 0x00, 0x38, 0x00, 0x00, 0x00,
  0x01, 0x00, 0x00, 0x00, 0x00, 0x00, 0x0e, 0x00, 0x18, 0x00, 0x17, 0x00,
  0x10, 0x00, 0x0c, 0x00, 0x08, 0x00, 0x04, 0x00, 0x0e, 0x00, 0x00, 0x00,
  0x02, 0x00, 0x00, 0x00, 0x01, 0x00, 0x00, 0x00, 0x02, 0x00, 0x00, 0x00,
  0x01, 0x00, 0x00, 0x00, 0x00, 0x00, 0x00, 0x01, 0x01, 0x00, 0x00, 0x00,
  0x0a, 0x00, 0x00, 0x00, 0x01, 0x00, 0x00, 0x00, 0x09, 0x00, 0x00, 0x00,
  0xbe, 0xff, 0xff, 0xff, 0x10, 0x00, 0x00, 0x00, 0x00, 0x00, 0x00, 0x01,
  0x1c, 0x00, 0x00, 0x00, 0x20, 0x00, 0x00, 0x00, 0xb0, 0xff, 0xff, 0xff,
  0x00, 0x00, 0x00, 0x01, 0x01, 0x00, 0x00, 0x00, 0x01, 0x00, 0x00, 0x00,
  0x00, 0x00, 0x00, 0x01, 0x01, 0x00, 0x00, 0x00, 0x09, 0x00, 0x00, 0x00,
  0x03, 0x00, 0x00, 0x00, 0x08, 0x00, 0x00, 0x00, 0x05, 0x00, 0x00, 0x00,
  0x04, 0x00, 0x00, 0x00, 0x00, 0x00, 0x0e, 0x00, 0x14, 0x00, 0x00, 0x00,
  0x10, 0x00, 0x0c, 0x00, 0x0b, 0x00, 0x04, 0x00, 0x0e, 0x00, 0x00, 0x00,
  0x1c, 0x00, 0x00, 0x00, 0x00, 0x00, 0x00, 0x01, 0x28, 0x00, 0x00, 0x00,
  0x2c, 0x00, 0x00, 0x00, 0x0c, 0x00, 0x14, 0x00, 0x13, 0x00, 0x0c, 0x00,
  0x08, 0x00, 0x07, 0x00, 0x0c, 0x00, 0x00, 0x00, 0x00, 0x00, 0x00, 0x01,
  0x01, 0x00, 0x00, 0x00, 0x01, 0x00, 0x00, 0x00, 0x00, 0x00, 0x00, 0x01,
  0x01, 0x00, 0x00, 0x00, 0x08, 0x00, 0x00, 0x00, 0x03, 0x00, 0x00, 0x00,
  0x00, 0x00, 0x00, 0x00, 0x07, 0x00, 0x00, 0x00, 0x06, 0x00, 0x00, 0x00,
  0x01, 0x00, 0x00, 0x00, 0x0d, 0x00, 0x00, 0x00, 0x01, 0x00, 0x00, 0x00,
  0x00, 0x00, 0x00, 0x00, 0x0e, 0x00, 0x00, 0x00, 0x24, 0x0d, 0x00, 0x00,
  0xbc, 0x0c, 0x00, 0x00, 0x30, 0x0c, 0x00, 0x00, 0xc4, 0x0b, 0x00, 0x00,
  0xd8, 0x09, 0x00, 0x00, 0xec, 0x07, 0x00, 0x00, 0x00, 0x06, 0x00, 0x00,
  0x14, 0x04, 0x00, 0x00, 0x10, 0x03, 0x00, 0x00, 0x24, 0x02, 0x00, 0x00,
  0x90, 0x01, 0x00, 0x00, 0x14, 0x01, 0x00, 0x00, 0x80, 0x00, 0x00, 0x00,
  0x04, 0x00, 0x00, 0x00, 0x2a, 0xf3, 0xff, 0xff, 0x00, 0x00, 0x00, 0x01,
  0x18, 0x00, 0x00, 0x00, 0x20, 0x00, 0x00, 0x00, 0x3c, 0x00, 0x00, 0x00,
  0x0e, 0x00, 0x00, 0x00, 0x00, 0x00, 0x00, 0x09, 0x50, 0x00, 0x00, 0x00,
  0x02, 0x00, 0x00, 0x00, 0xff, 0xff, 0xff, 0xff, 0x07, 0x00, 0x00, 0x00,
  0x0c, 0xf3, 0xff, 0xff, 0x08, 0x00, 0x00, 0x00, 0x10, 0x00, 0x00, 0x00,
  0x01, 0x00, 0x00, 0x00, 0x80, 0xff, 0xff, 0xff, 0xff, 0xff, 0xff, 0xff,
  0x01, 0x00, 0x00, 0x00, 0x00, 0x00, 0x80, 0x3b, 0x19, 0x00, 0x00, 0x00,
  0x53, 0x74, 0x61, 0x74, 0x65, 0x66, 0x75, 0x6c, 0x50, 0x61, 0x72, 0x74,
  0x69, 0x74, 0x69, 0x6f, 0x6e, 0x65, 0x64, 0x43, 0x61, 0x6c, 0x6c, 0x3a,
  0x30, 0x00, 0x00, 0x00, 0x02, 0x00, 0x00, 0x00, 0x01, 0x00, 0x00, 0x00,
  0x07, 0x00, 0x00, 0x00, 0xa2, 0xf3, 0xff, 0xff, 0x00, 0x00, 0x00, 0x01,
  0x18, 0x00, 0x00, 0x00, 0x20, 0x00, 0x00, 0x00, 0x3c, 0x00, 0x00, 0x00,
  0x0d, 0x00, 0x00, 0x00, 0x00, 0x00, 0x00, 0x09, 0x68, 0x00, 0x00, 0x00,
  0x02, 0x00, 0x00, 0x00, 0xff, 0xff, 0xff, 0xff, 0x07, 0x00, 0x00, 0x00,
  0x84, 0xf3, 0xff, 0xff, 0x08, 0x00, 0x00, 0x00, 0x10, 0x00, 0x00, 0x00,
  0x01, 0x00, 0x00, 0x00, 0x3f, 0x00, 0x00, 0x00, 0x00, 0x00, 0x00, 0x00,
  0x01, 0x00, 0x00, 0x00, 0xee, 0x57, 0xaf, 0x3e, 0x30, 0x00, 0x00, 0x00,
  0x73, 0x65, 0x71, 0x75, 0x65, 0x6e, 0x74, 0x69, 0x61, 0x6c, 0x2f, 0x64,
  0x65, 0x6e, 0x73, 0x65, 0x2f, 0x4d, 0x61, 0x74, 0x4d, 0x75, 0x6c, 0x3b,
  0x73, 0x65, 0x71, 0x75, 0x65, 0x6e, 0x74, 0x69, 0x61, 0x6c, 0x2f, 0x64,
  0x65, 0x6e, 0x73, 0x65, 0x2f, 0x42, 0x69, 0x61, 0x73, 0x41, 0x64, 0x64,
  0x00, 0x00, 0x00, 0x00, 0x02, 0x00, 0x00, 0x00, 0x01, 0x00, 0x00, 0x00,
  0x07, 0x00, 0x00, 0x00, 0x32, 0xf4, 0xff, 0xff, 0x00, 0x00, 0x00, 0x01,
  0x18, 0x00, 0x00, 0x00, 0x20, 0x00, 0x00, 0x00, 0x3c, 0x00, 0x00, 0x00,
  0x0c, 0x00, 0x00, 0x00, 0x00, 0x00, 0x00, 0x09, 0x50, 0x00, 0x00, 0x00,
  0x02, 0x00, 0x00, 0x00, 0xff, 0xff, 0xff, 0xff, 0x40, 0x04, 0x00, 0x00,
  0x14, 0xf4, 0xff, 0xff, 0x08, 0x00, 0x00, 0x00, 0x10, 0x00, 0x00, 0x00,
  0x01, 0x00, 0x00, 0x00, 0x80, 0xff, 0xff, 0xff, 0xff, 0xff, 0xff, 0xff,
  0x01, 0x00, 0x00, 0x00, 0x43, 0xf6, 0x93, 0x3d, 0x1a, 0x00, 0x00, 0x00,
  0x73, 0x65, 0x71, 0x75, 0x65, 0x6e, 0x74, 0x69, 0x61, 0x6c, 0x2f, 0x66,
  0x6c, 0x61, 0x74, 0x74, 0x65, 0x6e, 0x2f, 0x52, 0x65, 0x73, 0x68, 0x61,
  0x70, 0x65, 0x00, 0x00, 0x02, 0x00, 0x00, 0x00, 0x01, 0x00, 0x00, 0x00,
  0x40, 0x04, 0x00, 0x00, 0xaa, 0xf4, 0xff, 0xff, 0x00, 0x00, 0x00, 0x01,
  0x18, 0x00, 0x00, 0x00, 0x28, 0x00, 0x00, 0x00, 0x44, 0x00, 0x00, 0x00,
  0x0b, 0x00, 0x00, 0x00, 0x00, 0x00, 0x00, 0x09, 0x60, 0x00, 0x00, 0x00,
  0x04, 0x00, 0x00, 0x00, 0xff, 0xff, 0xff, 0xff, 0x22, 0x00, 0x00, 0x00,
  0x01, 0x00, 0x00, 0x00, 0x20, 0x00, 0x00, 0x00, 0x94, 0xf4, 0xff, 0xff,
  0x08, 0x00, 0x00, 0x00, 0x10, 0x00, 0x00, 0x00, 0x01, 0x00, 0x00, 0x00,
  0x80, 0xff, 0xff, 0xff, 0xff, 0xff, 0xff, 0xff, 0x01, 0x00, 0x00, 0x00,
  0x43, 0xf6, 0x93, 0x3d, 0x20, 0x00, 0x00, 0x00, 0x73, 0x65, 0x71, 0x75,
  0x65, 0x6e, 0x74, 0x69, 0x61, 0x6c, 0x2f, 0x6d, 0x61, 0x78, 0x5f, 0x70,
  0x6f, 0x6f, 0x6c, 0x69, 0x6e, 0x67, 0x32, 0x64, 0x2f, 0x4d, 0x61, 0x78,
  0x50, 0x6f, 0x6f, 0x6c, 0x00, 0x00, 0x00, 0x00, 0x04, 0x00, 0x00, 0x00,
  0x01, 0x00, 0x00, 0x00, 0x22, 0x00, 0x00, 0x00, 0x01, 0x00, 0x00, 0x00,
  0x20, 0x00, 0x00, 0x00, 0x3a, 0xf5, 0xff, 0xff, 0x00, 0x00, 0x00, 0x01,
  0x18, 0x00, 0x00, 0x00, 0x28, 0x00, 0x00, 0x00, 0x44, 0x00, 0x00, 0x00,
  0x0a, 0x00, 0x00, 0x00, 0x00, 0x00, 0x00, 0x09, 0xb8, 0x00, 0x00, 0x00,
  0x04, 0x00, 0x00, 0x00, 0xff, 0xff, 0xff, 0xff, 0x45, 0x00, 0x00, 0x00,
  0x01, 0x00, 0x00, 0x00, 0x20, 0x00, 0x00, 0x00, 0x24, 0xf5, 0xff, 0xff,
  0x08, 0x00, 0x00, 0x00, 0x10, 0x00, 0x00, 0x00, 0x01, 0x00, 0x00, 0x00,
  0x80, 0xff, 0xff, 0xff, 0xff, 0xff, 0xff, 0xff, 0x01, 0x00, 0x00, 0x00,
  0x43, 0xf6, 0x93, 0x3d, 0x7a, 0x00, 0x00, 0x00, 0x73, 0x65, 0x71, 0x75,
  0x65, 0x6e, 0x74, 0x69, 0x61, 0x6c, 0x2f, 0x63, 0x6f, 0x6e, 0x76, 0x32,
  0x64, 0x5f, 0x31, 0x2f, 0x52, 0x65, 0x6c, 0x75, 0x3b, 0x73, 0x65, 0x71,
  0x75, 0x65, 0x6e, 0x74, 0x69, 0x61, 0x6c, 0x2f, 0x63, 0x6f, 0x6e, 0x76,
  0x32, 0x64, 0x5f, 0x31, 0x2f, 0x42, 0x69, 0x61, 0x73, 0x41, 0x64, 0x64,
  0x3b, 0x73, 0x65, 0x71, 0x75, 0x65, 0x6e, 0x74, 0x69, 0x61, 0x6c, 0x2f,
  0x63, 0x6f, 0x6e, 0x76, 0x32, 0x64, 0x5f, 0x31, 0x2f, 0x43, 0x6f, 0x6e,
  0x76, 0x32, 0x44, 0x3b, 0x73, 0x65, 0x71, 0x75, 0x65, 0x6e, 0x74, 0x69,
  0x61, 0x6c, 0x2f, 0x63, 0x6f, 0x6e, 0x76, 0x32, 0x64, 0x5f, 0x31, 0x2f,
  0x42, 0x69, 0x61, 0x73, 0x41, 0x64, 0x64, 0x2f, 0x52, 0x65, 0x61, 0x64,
  0x56, 0x61, 0x72, 0x69, 0x61, 0x62, 0x6c, 0x65, 0x4f, 0x70, 0x00, 0x00,
  0x04, 0x00, 0x00, 0x00, 0x01, 0x00, 0x00, 0x00, 0x45, 0x00, 0x00, 0x00,
  0x01, 0x00, 0x00, 0x00, 0x20, 0x00, 0x00, 0x00, 0x22, 0xf6, 0xff, 0xff,
  0x00, 0x00, 0x00, 0x01, 0x18, 0x00, 0x00, 0x00, 0x28, 0x00, 0x00, 0x00,
  0x48, 0x00, 0x00, 0x00, 0x09, 0x00, 0x00, 0x00, 0x00, 0x00, 0x00, 0x09,
  0xd0, 0x00, 0x00, 0x00, 0x04, 0x00, 0x00, 0x00, 0xff, 0xff, 0xff, 0xff,
  0x48, 0x00, 0x00, 0x00, 0x01, 0x00, 0x00, 0x00, 0x20, 0x00, 0x00, 0x00,
  0x0c, 0xf6, 0xff, 0xff, 0x08, 0x00, 0x00, 0x00, 0x14, 0x00, 0x00, 0x00,
  0x01, 0x00, 0x00, 0x00, 0x80, 0xff, 0xff, 0xff, 0xff, 0xff, 0xff, 0xff,
  0x00, 0x00, 0x00, 0x00, 0x01, 0x00, 0x00, 0x00, 0xd5, 0x18, 0x92, 0x3d,
  0x8d, 0x00, 0x00, 0x00, 0x73, 0x65, 0x71, 0x75, 0x65, 0x6e, 0x74, 0x69,
  0x61, 0x6c, 0x2f, 0x63, 0x6f, 0x6e, 0x76, 0x32, 0x64, 0x2f, 0x52, 0x65,
  0x6c, 0x75, 0x3b, 0x73, 0x65, 0x71, 0x75, 0x65, 0x6e, 0x74, 0x69, 0x61,
  0x6c, 0x2f, 0x63, 0x6f, 0x6e, 0x76, 0x32, 0x64, 0x2f, 0x42, 0x69, 0x61,
  0x73, 0x41, 0x64, 0x64, 0x3b, 0x73, 0x65, 0x71, 0x75, 0x65, 0x6e, 0x74,
  0x69, 0x61, 0x6c, 0x2f, 0x63, 0x6f, 0x6e, 0x76, 0x32, 0x64, 0x5f, 0x31,
  0x2f, 0x43, 0x6f, 0x6e, 0x76, 0x32, 0x44, 0x3b, 0x73, 0x65, 0x71, 0x75,
  0x65, 0x6e, 0x74, 0x69, 0x61, 0x6c, 0x2f, 0x63, 0x6f, 0x6e, 0x76, 0x32,
  0x64, 0x2f, 0x43, 0x6f, 0x6e, 0x76, 0x32, 0x44, 0x3b, 0x73, 0x65, 0x71,
  0x75, 0x65, 0x6e, 0x74, 0x69, 0x61, 0x6c, 0x2f, 0x63, 0x6f, 0x6e, 0x76,
  0x32, 0x64, 0x2f, 0x42, 0x69, 0x61, 0x73, 0x41, 0x64, 0x64, 0x2f, 0x52,
  0x65, 0x61, 0x64, 0x56, 0x61, 0x72, 0x69, 0x61, 0x62, 0x6c, 0x65, 0x4f,
  0x70, 0x00, 0x00, 0x00, 0x04, 0x00, 0x00, 0x00, 0x01, 0x00, 0x00, 0x00,
  0x48, 0x00, 0x00, 0x00, 0x01, 0x00, 0x00, 0x00, 0x20, 0x00, 0x00, 0x00,
  0x86, 0xf7, 0xff, 0xff, 0x00, 0x00, 0x00, 0x01, 0x14, 0x00, 0x00, 0x00,
  0xa8, 0x01, 0x00, 0x00, 0x08, 0x00, 0x00, 0x00, 0x00, 0x00, 0x00, 0x09,
  0xbc, 0x01, 0x00, 0x00, 0xf4, 0xf6, 0xff, 0xff, 0x08, 0x00, 0x00, 0x00,
  0x0c, 0x01, 0x00, 0x00, 0x20, 0x00, 0x00, 0x00, 0x00, 0x00, 0x00, 0x00,
  0x00, 0x00, 0x00, 0x00, 0x00, 0x00, 0x00, 0x00, 0x00, 0x00, 0x00, 0x00,
  0x00, 0x00, 0x00, 0x00, 0x00, 0x00, 0x00, 0x00, 0x00, 0x00, 0x00, 0x00,
  0x00, 0x00, 0x00, 0x00, 0x00, 0x00, 0x00, 0x00, 0x00, 0x00, 0x00, 0x00,
  0x00, 0x00, 0x00, 0x00, 0x00, 0x00, 0x00, 0x00, 0x00, 0x00, 0x00, 0x00,
  0x00, 0x00, 0x00, 0x00, 0x00, 0x00, 0x00, 0x00, 0x00, 0x00, 0x00, 0x00,
  0x00, 0x00, 0x00, 0x00, 0x00, 0x00, 0x00, 0x00, 0x00, 0x00, 0x00, 0x00,
  0x00, 0x00, 0x00, 0x00, 0x00, 0x00, 0x00, 0x00, 0x00, 0x00, 0x00, 0x00,
  0x00, 0x00, 0x00, 0x00, 0x00, 0x00, 0x00, 0x00, 0x00, 0x00, 0x00, 0x00,
  0x00, 0x00, 0x00, 0x00, 0x00, 0x00, 0x00, 0x00, 0x00, 0x00, 0x00, 0x00,
  0x00, 0x00, 0x00, 0x00, 0x00, 0x00, 0x00, 0x00, 0x00, 0x00, 0x00, 0x00,
  0x00, 0x00, 0x00, 0x00, 0x00, 0x00, 0x00, 0x00, 0x00, 0x00, 0x00, 0x00,
  0x00, 0x00, 0x00, 0x00, 0x00, 0x00, 0x00, 0x00, 0x00, 0x00, 0x00, 0x00,
  0x00, 0x00, 0x00, 0x00, 0x00, 0x00, 0x00, 0x00, 0x00, 0x00, 0x00, 0x00,
  0x00, 0x00, 0x00, 0x00, 0x00, 0x00, 0x00, 0x00, 0x00, 0x00, 0x00, 0x00,
  0x00, 0x00, 0x00, 0x00, 0x00, 0x00, 0x00, 0x00, 0x00, 0x00, 0x00, 0x00,
  0x00, 0x00, 0x00, 0x00, 0x00, 0x00, 0x00, 0x00, 0x00, 0x00, 0x00, 0x00,
  0x00, 0x00, 0x00, 0x00, 0x00, 0x00, 0x00, 0x00, 0x00, 0x00, 0x00, 0x00,
  0x00, 0x00, 0x00, 0x00, 0x00, 0x00, 0x00, 0x00, 0x00, 0x00, 0x00, 0x00,
  0x00, 0x00, 0x00, 0x00, 0x00, 0x00, 0x00, 0x00, 0x00, 0x00, 0x00, 0x00,
  0x00, 0x00, 0x00, 0x00, 0x00, 0x00, 0x00, 0x00, 0x00, 0x00, 0x00, 0x00,
  0x00, 0x00, 0x00, 0x00, 0x00, 0x00, 0x00, 0x00, 0x00, 0x00, 0x00, 0x00,
  0x00, 0x00, 0x00, 0x00, 0x20, 0x00, 0x00, 0x00, 0xb8, 0xdb, 0x0d, 0x3b,
  0xa7, 0x20, 0x09, 0x3b, 0x47, 0x4e, 0x14, 0x3b, 0x08, 0xc2, 0xe7, 0x3a,
  0xfb, 0x4a, 0x1e, 0x3b, 0x79, 0xfb, 0x03, 0x3b, 0x2d, 0x53, 0xf3, 0x3a,
  0x13, 0xea, 0x07, 0x3b, 0x6e, 0x16, 0x07, 0x3b, 0x00, 0x68, 0x0a, 0x3b,
  0x04, 0xe8, 0x03, 0x3b, 0x07, 0xc0, 0x0e, 0x3b, 0xa8, 0x3f, 0xff, 0x3a,
  0xe2, 0x2f, 0xfb, 0x3a, 0x42, 0x60, 0x18, 0x3b, 0xad, 0xe3, 0x15, 0x3b,
  0x32, 0x94, 0x07, 0x3b, 0xc5, 0x29, 0x0f, 0x3b, 0x85, 0x51, 0x14, 0x3b,
  0x6f, 0x00, 0x0e, 0x3b, 0xe8, 0xfc, 0x03, 0x3b, 0xd3, 0x2b, 0xf1, 0x3a,
  0x9b, 0xd9, 0x26, 0x3b, 0x18, 0x25, 0x26, 0x3b, 0xab, 0xcd, 0x10, 0x3b,
  0x85, 0x3f, 0x2f, 0x3b, 0x18, 0x24, 0xfa, 0x3a, 0x19, 0xeb, 0x07, 0x3b,
  0xcb, 0x71, 0x15, 0x3b, 0x8d, 0x5f, 0xff, 0x3a, 0x4b, 0x78, 0x07, 0x3b,
  0xfd, 0x62, 0x0d, 0x3b, 0x18, 0x00, 0x00, 0x00, 0x73, 0x65, 0x71, 0x75,
  0x65, 0x6e, 0x74, 0x69, 0x61, 0x6c, 0x2f, 0x63, 0x6f, 0x6e, 0x76, 0x32,
  0x64, 0x2f, 0x43, 0x6f, 0x6e, 0x76, 0x32, 0x44, 0x00, 0x00, 0x00, 0x00,
